/**
  ******************************************************************************
  * @file    ppg_network_data_params.c
  * @author  AST Embedded Analytics Research Platform
  * @date    Tue May  9 01:18:54 2023
  * @brief   AI Tool Automatic Code Generator for Embedded NN computing
  ******************************************************************************
  * Copyright (c) 2023 STMicroelectronics.
  * All rights reserved.
  *
  * This software is licensed under terms that can be found in the LICENSE file
  * in the root directory of this software component.
  * If no LICENSE file comes with this software, it is provided AS-IS.
  ******************************************************************************
  */

#include "ppg_network_data_params.h"


/**  Activations Section  ****************************************************/
ai_handle g_ppg_network_activations_table[1 + 2] = {
  AI_HANDLE_PTR(AI_MAGIC_MARKER),
  AI_HANDLE_PTR(NULL),
  AI_HANDLE_PTR(AI_MAGIC_MARKER),
};




/**  Weights Section  ********************************************************/
AI_ALIGNED(32)
const ai_u64 s_ppg_network_weights_array_u64[3745] = {
  0x3ecb17e83ea24f79U, 0xbe32c360bf4a9447U, 0x3e0bdf3d3d9792d3U, 0xbe3a604cbd8c5629U,
  0x3d8da82abdf4a39cU, 0x3e3feaa9be081571U, 0x3e019694bc84101bU, 0x3dddb0bfbdb993ebU,
  0x3da8ede23c14588dU, 0x3c05568ebd9f17a0U, 0x3e5c46fd3d97f244U, 0xbe1bab8dbd924577U,
  0xbcfa74a1bdc6faf3U, 0x3c6b5c563dbbda34U, 0x3e2c1b33bdfd5d3cU, 0xbd42b2febccc1b96U,
  0xbdc8a422bcb47c39U, 0xbcca14523e10d650U, 0xbebec386be8b6c5cU, 0xbea2fa94bea8f35dU,
  0xbd28676dbe6bc75aU, 0x3e70fabe3d372372U, 0x3eed352c3e9345f5U, 0x3f3d8cec3f4c0103U,
  0x3f35731d3f3af9f0U, 0x3f16584e3f2e97d2U, 0xbaec7a613eca6014U, 0xbe00b1c03c59e51eU,
  0xbe9228f7bea9c154U, 0xbe5d9db7bdf1834aU, 0xbe46bc5dbd0d1f72U, 0x3caec5a8bdafccceU,
  0xbe849db4bc47ef4cU, 0xbe5e0328bcc8257fU, 0xbe2b5f4abece5931U, 0xbe1ab3c2be6d4265U,
  0xbe423e843c0884e0U, 0x3db36ac0bd6fffbaU, 0x3cd7b8bb3d48f58eU, 0xbe2ddd1bbe60aa2bU,
  0xbe84e3cfbd2cd5e2U, 0xbf00157cbe800f0bU, 0xbe949e3bbeaf910aU, 0xbe02dee4U,
  0x3f8767b1be2dbdd9U, 0x3f644004bfc68703U, 0xbfb8bad93f9d90e4U, 0xbfa7f813bbbdf17dU,
  0x407868ba3f9bfa81U, 0x3e263475be24c4c5U, 0x3e30a977be1afdb0U, 0xbcd9c53f3e93adc0U,
  0x3e664f223e2efb2dU, 0x3d31ebf43c9a6938U, 0x3e73eea23d534bafU, 0x3ec09b633e863462U,
  0x3ed2e1333f12648aU, 0x3e9542183e99c0abU, 0xbcb354783cb076e4U, 0xbe7cdf57be0598e2U,
  0x3df8c175be0cb428U, 0x3dd3e6743e3d9fc6U, 0xbe9e5df8bd726e18U, 0xbe0270e3be73adc7U,
  0x3aff37c3be9ad988U, 0xbea6ffd4be0dabe6U, 0xbec9ae52beadb217U, 0x3d87cc13be8423e0U,
  0x3db194643e7289d5U, 0x3e6428a63d833bf5U, 0xbe1b8e47bd4efc34U, 0xbe7b756ebda62377U,
  0xbe42f6b1be199fc0U, 0x3d8a4125beb28d62U, 0x3e8140fc3de04b36U, 0x3d007e683e6b3de9U,
  0xbc3f95da3e1a43c7U, 0x3e0a3d643e18c461U, 0x3e6b6c023e9320e9U, 0xbe9c70a2be4318b3U,
  0xbe7bab01bed03b8aU, 0x3eaa87a0bc8effa1U, 0x3f3acb673f283ce2U, 0xbd088eeb3f0233fbU,
  0xbe4e6c6fbde90797U, 0xbe4a2c04bea1df4aU, 0x3de2b27b3db9db0aU, 0x3ea219f13e5c72a1U,
  0xbe176d853d7552c7U, 0xbe4719efbef5d7e7U, 0xbe9ccab1be38194bU, 0xbdcb2332be187890U,
  0xbdd64978bdc72816U, 0xbe60d993bca8614eU, 0xbe36bc39bea4adcaU, 0xbe557e05bdfb9da6U,
  0xbdd1cd76bda8f7beU, 0xbe5f703abe28bd9eU, 0x3df929743ca9ca23U, 0x3e0bce88bc45b6d8U,
  0x3df8b503bd1c2a32U, 0xbc5357533e5e73d1U, 0xbe164909b9af9979U, 0xbe0d3d773b175ce7U,
  0xbdc83580be046ae4U, 0x3d2a03f33df60c22U, 0xbeaa5095be355a45U, 0xbf108962bec25e4fU,
  0xbf09eef7bf0cca58U, 0xbdbfffc0be8a13e0U, 0x3d281b98bd97347fU, 0x3e00e6703dd3f42cU,
  0x3e3768583dab8fc1U, 0x3e547fc63e03697dU, 0x3c6f63ee3e80f72eU, 0xbc0cbacf3c9b889eU,
  0x3c839321be1b8fb7U, 0x3e82dc9c3e2d74c2U, 0x3eb41fea3ec20567U, 0x3f0cca913ed55fa8U,
  0x3ebfb9953ea0f5f9U, 0xbe4bee213d055a57U, 0xbee067bdbe80dc10U, 0xbefae008bf31f31fU,
  0xbf09c898bf2c0758U, 0xbe99cb82bece27a8U, 0x3d658f78bddb668bU, 0x3e77de593e9d67cbU,
  0x3cd0b91d3d5870c5U, 0xbe729372bda7be4fU, 0x3b0844acbe98182bU, 0x3c041de2bd4202d9U,
  0x3e0fdfa23cd4b1f0U, 0x3e6ecfed3e1f2f9aU, 0xbe0030f63e24b04eU, 0xbe3f84e6be4dc576U,
  0xbe81c63ebe88aeabU, 0xbd6118fbbd829005U, 0xbe0894153ad7f469U, 0x3e6ab3a33d5ff89cU,
  0xbd94a5703e12c3d0U, 0xbed5056fbdeda047U, 0xbeed8c2dbf1f27baU, 0xbdda52e1be92479bU,
  0x3e08a854bc9ef527U, 0x3dbe04403d7f7befU, 0xbd6785d3bc73af7bU, 0xbf2ba440be9ff1fcU,
  0xbf07e985bf253deeU, 0xbd048751be957861U, 0x3d0310f5bc9a8a3dU, 0x3bd10a52bb136c63U,
  0xbc42635cbdf6ad06U, 0x3d63d7393e2731beU, 0x3e0e6baabd98b3ebU, 0xbdc783dd3bd39dc3U,
  0x3da393f7bd0d684eU, 0xbd63ac99bdf4a19bU, 0xbdc436083d551e88U, 0xbd8838523e115369U,
  0xbc994eb63d6df3fbU, 0x3bce11e13cc8f7edU, 0x3d087669bd9092b6U, 0xbccb2ebebdc0b947U,
  0x3d745bc73d6eaac7U, 0x3d17f3c9bd811c81U, 0xbd5b443cbd65deafU, 0x3ccc992e3d190ca5U,
  0x3e1b7eedbd6f8b64U, 0xbce87e1e3d694ad3U, 0x3dc51372bd2a3023U, 0x3c8d80f53c86a1aaU,
  0x3ca1b396bda3fcfeU, 0x3bc77183bd7abe6cU, 0xbd4f1fe8bb17855cU, 0xbdb5056dbc5db8beU,
  0xbe73ccb0bd0ed7c7U, 0xbe067a14be4753ebU, 0xbe826944be59d67aU, 0x3dccaf40be11375fU,
  0x3e1c7f693e5fe87cU, 0xbdb1ba463da737ffU, 0xbec59633be2b9533U, 0x3cd1e6f6bec28577U,
  0x3f43c4c63ef257c4U, 0x3f21b1943f33946dU, 0xbdb022973e8aa99aU, 0xbe1350a4be401385U,
  0x3e8782fc3ca40bcdU, 0x3d06031a3ec973aaU, 0xbe9a055dbbde9b1cU, 0xbe01f322be8fd8d2U,
  0x3e4ac9e8bdbdccc4U, 0xbe1c4aa2bd2dc370U, 0x3e4c51443e47e257U, 0x3ed829d03efdbaccU,
  0x3eb0b5a03eaa5accU, 0x3e0212d53e3677a3U, 0xbb83a7f23e8f421cU, 0x3c2f9842bdc716ecU,
  0xbcecfe30be3c6638U, 0x3e1ed1fc3e20480dU, 0x3ef81d1c3ed18894U, 0x3e9847903ebc4024U,
  0x3e26c3553e0127d1U, 0xbd95dcc33d620955U, 0x3d2bfd6d3e3f42e5U, 0xbd3ce86b3e16f4e4U,
  0xbeab6fd6bbcacf72U, 0xbf0607eebe94ae99U, 0xbeb7f4bbbecd93d1U, 0xbef62167bedb0817U,
  0xbee5001ebeb7987dU, 0x401c4782bebec060U, 0x0U, 0x0U,
  0x0U, 0x0U, 0x3dcf3f96c03304a0U, 0x3d25a65bbc65b25eU,
  0xbdbc40ef3c0c0aefU, 0x3e06051d3d8c0951U, 0xbe9bcd04bea15824U, 0x3ee5e833be25a9bfU,
  0x3cfbda2a3d93b2a9U, 0xbe152544be016137U, 0x3e2471493d90ca81U, 0x3f2ec1ec3ce0c583U,
  0x3dcbda6e3c158445U, 0x3eb87224bcdbfb3eU, 0x3d92f1293e813becU, 0xbd8c176bbdc8081fU,
  0x3de6c2bb3e9b076dU, 0x3cb41e1cbd85560bU, 0x3d2fcf963e160d60U, 0x3ce85894bc7a9d6aU,
  0xbc1bb5f93e635658U, 0x3d62deeb3d7f59a3U, 0x3e54fb0f3e004f52U, 0x3e6f94dd3d871adcU,
  0x3ee2c1b83e03c2c7U, 0xbf1a520dbd8def5bU, 0xbd8305c2be1943f1U, 0x3e155ed4bd5a1acaU,
  0x3db59552be882109U, 0x3dbd0992bb81f243U, 0xbe32102a3d14aac2U, 0x3d44493f3e4d5f29U,
  0x3ea0fab0bda7a590U, 0x3cc5a0ff3c83b692U, 0xbe0897e23ea30d6dU, 0xbcaf24afbeb3d695U,
  0x3e8d33323d04e5f9U, 0x3e705d6d3d9a1560U, 0xbe1e861dbc099232U, 0x3e7d5ab73dda851fU,
  0x3d0713b2be5d3b96U, 0xbcb1d0e53d6703a8U, 0x3e759ba9bd951cdcU, 0xbd0e4e30bbecb10fU,
  0x3e370315be3a4890U, 0xbf0e004dbdf41db7U, 0xbcbb4fb5bde75c93U, 0xbd55b884be3d070cU,
  0xbd71a9d43e05e6d8U, 0xbd70f5c23d9e7a47U, 0x3e1f53dbbe8d0061U, 0x3e82c6a03ec1963eU,
  0xbd835e2abe81bb71U, 0xbe2242e0be3e0547U, 0xbd2ba0f3be071307U, 0x3e0f3370bec01f3eU,
  0x3ed2e22c3e3e7169U, 0x3dc28112bd967d95U, 0x3edc19a53d8933c9U, 0xbce4720f3e23ad65U,
  0x3e2b384a3d946cf1U, 0xbe6244813ddef01dU, 0x3d6f163a3d8f5568U, 0xbb344850bc3b05e5U,
  0x3e1092c0bde5b5d6U, 0x3ae2b04abcb0ea64U, 0x4008ad7f3e46db24U, 0x3f7eb46e3ff6bd42U,
  0x3ea3e836bdce9e52U, 0x3d7da5003f08f252U, 0x3fb2459dbd288df6U, 0x3df87cb0bdfa2ef0U,
  0x3e3c58a73db4bce8U, 0x3dbaeea53e96287cU, 0x3faadf323e04a08dU, 0xbcd694003f09fb73U,
  0x3eb791333eacfe68U, 0x3e93f81d3e7260aaU, 0x3e9d12c83e7bfff4U, 0x3e787b463e77f299U,
  0x3e6182e53e273785U, 0xbd2147813e145959U, 0xbe899a63be162c93U, 0xbe958401be69bf8fU,
  0xbe9a35b7bea9799fU, 0xbf00bdb9bed1070dU, 0x3ebe7940bf09d0caU, 0xbdd36c683ec8ac5eU,
  0xbcb9fd31be6b8345U, 0x3eedc1113e4a77edU, 0x3ecee5f83ee9e9f5U, 0x3df2e23a3e2f3f4fU,
  0x3e9718693e5d65f4U, 0x3e8a755e3ed8af0eU, 0xbe0a1c133cd17c50U, 0x3d227782bdcda4f6U,
  0xbee505343e423555U, 0x3e27b232bd145607U, 0xbe5c250f3d7112dbU, 0xbe7e0b37becad583U,
  0x3f217f803eabdee5U, 0xbdf73270be03bf40U, 0x3f2f72543f2d2196U, 0xbe5211763db4f636U,
  0x3e0cd50c3dde423cU, 0xbe1fe2b43d5d1be4U, 0x3ddf6317be6bc55dU, 0xbe958ca7be4c531bU,
  0xbe3f00fbbe807037U, 0xbe88c567be53a8d2U, 0x3c108f2dbe892fa4U, 0xbd8c37583b037e67U,
  0xbe25f63fbe310dd2U, 0xbe913b1ebea6ae97U, 0xbeab9511be4a6a64U, 0xbef97d30bece422cU,
  0xbeabba6bbf07b112U, 0xbec6fea7bef264a3U, 0xbe9d2c20bed04030U, 0xbdac8155be8e0892U,
  0x3e6ded6abad22c8aU, 0x3dca42033e03340dU, 0x3dbfdfd03d95724dU, 0xbe3875863d77de6cU,
  0x3d5f35713d7a5623U, 0x3d280714bccb11bdU, 0x3ede8fd5bdb99304U, 0x3e0b27e03eafede9U,
  0x3f23982d3dfe13c2U, 0x3d8ab0c23f0b4006U, 0x3ef9264bbd8edf50U, 0xbeb9d8ff3e83ef45U,
  0xbe4221c5becbf0a3U, 0xbeddf69ebe9baa78U, 0xbe25d751beb084a9U, 0xbe309d5cbe7f1366U,
  0xbe71f6fabe6dd841U, 0xbe7e80c2be9ca855U, 0xbf28c62fbf2bd4dfU, 0xbe9abf46bf13efffU,
  0xbeb96f4abeb98310U, 0xbe172b6bbebbb90dU, 0x3d8f277ebd8b29afU, 0x3e02b8ba3a9d88beU,
  0x3e02334b3b20042eU, 0x3e55dbeb3e4288fdU, 0x3f139f213db5a281U, 0x3ed28baa3e6e547bU,
  0x3ecdcdee3ebb32edU, 0x3ca001e03e9d41b7U, 0x3e1ecfa8be413335U, 0xbe92a9e33dc1e1e6U,
  0xbdbe1248bed5ed53U, 0xbf1a54adbe6532daU, 0xbebcf9e3beeaec0eU, 0xbdf7b9e6be0d24d3U,
  0x3f2064e5bec974b5U, 0x3ed759473eac6827U, 0x3ebe2d5a3f0345f0U, 0x3e513da03ef5750aU,
  0x3dcde99c3d90a46fU, 0x3e32a5ec3e83171eU, 0x3e1de49c3e281e51U, 0x3ec266043da6e0f0U,
  0x3eee5de03e939ab2U, 0x3ec8c4e23ef38c96U, 0xbe70543a3eeaefc7U, 0xbeb581febe904b0fU,
  0x3d82432abe475db7U, 0x3e49924a3e17ecc2U, 0xbc98715f3e923f27U, 0x3e791be03e6ebaa0U,
  0x3e9fb7343e9f7f14U, 0xbd05bece3d66a87aU, 0x3d6693c53e7e52c7U, 0x3ccf27d43ded7c72U,
  0x3ebc26183e9816a6U, 0x3e60b31b3d8433c7U, 0x3e6184b53ea053b9U, 0x3dcca8883c2d1c60U,
  0x3ee381753ef69e45U, 0xbeff0d8abbb07d0eU, 0x3ea6767ebe6335e6U, 0xbed983753da0129cU,
  0xbe58b034bedf3364U, 0xbe568b85bd3b10d4U, 0x3e01bc2fbe41f16cU, 0x3d9f13d13e02867fU,
  0x3e2a35553dc2fb97U, 0x3e79425c3e6c280cU, 0x3e28b86c3e68410fU, 0x3e894a673e204c9cU,
  0x3e8e17ef3e600db3U, 0x3e6c8eaa3e502930U, 0x3e5f252d3e20f9b0U, 0x3e81dc083e145daeU,
  0x3ef1b8f73e4c9e98U, 0x3dfb1fec3e10b5dbU, 0x3ebb9ca53ea73cc9U, 0x3e2aa91b3e8ed6b7U,
  0xbe1ca9103dd44a91U, 0xbdd59b3abe078943U, 0xbea3ea40bc97b9aaU, 0xbef1f0e6bf217419U,
  0xbe6f30ecbdd97c34U, 0xbe50d412be28d5b3U, 0xbe9a4762be0fa4b9U, 0xbecd9f54be9cf49dU,
  0xbe2a48ccbecad5f5U, 0x3a0eecaa3e7cf2c0U, 0xbea74ba4becb8269U, 0x3f04dc5c3ec124c7U,
  0xbe5484b83ea11d73U, 0x3e87bb15bc611bceU, 0x3da4eecb3ec98ca1U, 0x3c981f9e3db37c1aU,
  0xbe87cdf73d222876U, 0xbeaa03953b6cc23bU, 0xbeaff1d1be8fc7bbU, 0xbe1a8bfcbe3954c7U,
  0xbe2327aabe4d923cU, 0xbe986b0bbe6a8d9eU, 0xbe932f64bdd978b6U, 0xbe16c8603d8558c8U,
  0xbe12dbc1bdb193b5U, 0xbe027064be423f45U, 0x3d40f7613d0d3204U, 0x3e6628753dbf3ac0U,
  0x3df31d3f3de24470U, 0x3e7f5a583dffdb3bU, 0x3d45f5253e052a73U, 0xbc11e7db3e6d729bU,
  0x3e4c17323e745711U, 0x3dca4a7f3e048a35U, 0x3ea71aab3e4d29f1U, 0x3eb62fc13ec7be23U,
  0x3e59db76U, 0x0U, 0x0U, 0x0U,
  0x0U, 0x0U, 0x0U, 0x0U,
  0x3e00c8ec00000000U, 0xbead0a83bde6e674U, 0x3e8a3a1dbdbfe28cU, 0x3e1066b4beecacdcU,
  0x3debb67cbe698756U, 0x3e5d155d3e98cbf4U, 0x3e25b47dbe60872aU, 0x3dc3afea3ec86338U,
  0x3e75e021be073918U, 0xbe0761833e90eafdU, 0xbd15b66dbd1db1cdU, 0x3f0cb2e13e2b0706U,
  0x3e776a8d3f4d0008U, 0x3d5683103e58f80fU, 0x3e09c4063e106157U, 0x3e3637df3e29d276U,
  0x3ee470bdbeb24b0cU, 0xbed36816bdf5c627U, 0x3ec97c8a3ddf405bU, 0xbea888023f0432a2U,
  0x3e12233f3ed305cfU, 0x3dca579cbd847246U, 0x3e2565a9be0c07e2U, 0xbd58f84c3c220831U,
  0x374cfb03be531edfU, 0xbd8ba209bb29270fU, 0xbd3532cabdd6067eU, 0xbe0e279f3e76a0f7U,
  0xbec519dc3e555810U, 0x3bfeda95bd99221bU, 0xbcf82feb3ca71908U, 0xbe46e0c3bd34974fU,
  0x3d2d7d54bd377218U, 0xbe8c41d0bd1ae374U, 0x3e2af0e43e4cd3b5U, 0x3e82317e3ebb7657U,
  0x3dc2c6ce3e1f9dbaU, 0xbe0241363da3504cU, 0xbdae12d7be66c26aU, 0x3e670dd03d6ea53fU,
  0xbe213ef43e5559edU, 0xbe053c463e662d82U, 0xbd0826c4bdaa0a90U, 0xbc48d5c33dbb8006U,
  0xbe6502cd3c8dc775U, 0x3e8aa1f4bdd650ffU, 0x3ef5a9bc3e698f41U, 0xbe89ffbc3e14463eU,
  0x3e0cc5d03eb128f7U, 0xbde585723d1ec4ceU, 0x3effd1ab3bee90feU, 0xbdae0ca7be40c02dU,
  0x3edfb24dbdcb0583U, 0x3d2025c83dfbe0b7U, 0xbe91147bbe08bfb7U, 0xbe1a9fa9be3f769aU,
  0xbeb5b3afbdcda634U, 0xbcd02ec83ec5d8b0U, 0x3f22a6313dbe6a68U, 0x3ed932f5be920eb3U,
  0xbefc3e63becaefe6U, 0xbdb1345f3ede76b9U, 0xbddae94cbc868558U, 0x3e5be6983e85bbc1U,
  0x3eedfa803e94bbccU, 0x3ebd8cfcbed43238U, 0x3da828033e776ac0U, 0xbd594d77bec51890U,
  0x3e60045a3e314816U, 0xbeac28ba3da3e896U, 0xbe8a01203e18a186U, 0xbe5f4c7f3d69ea56U,
  0x3e6c87ffbe9d663fU, 0xbef40d2cbddebc6eU, 0x3d9db1aebdb713b0U, 0x3d927ee43dba8486U,
  0x3ed2889a3ee6c94eU, 0x3ecf98263e30fe60U, 0xbe0bd1d5be3bf9f3U, 0xbe83e9933ed1bcc9U,
  0xbe55ee47be1347a5U, 0xbef54b5e3dffcfaaU, 0xbe0680c7bd0c0abfU, 0x3f0a69f93c4cd088U,
  0x3e5d4f6abe188d8aU, 0x3ea8f0333d6c75e6U, 0x3e9df760be2655b7U, 0x3e245d3d3e9e6586U,
  0x3dbf0476be13dfcdU, 0x3e6df369bec221a7U, 0xbd52421e3eabcc4eU, 0x3eb130c9beaf10b0U,
  0x3e7260afbf157a16U, 0x3e38e82abe069f0fU, 0x3ee20f133dbef5a5U, 0xba9c70f43e4606a4U,
  0x3d86f9e6bd2a5752U, 0x3ddd05853d9bdcd2U, 0xbd51f73f3ed41ddaU, 0x3e9d2811bda074c8U,
  0x3ee8f96a3dfc474eU, 0x3cfcacc1bdc4ced5U, 0xbd89a0ccbeedda49U, 0xbe446f37bd08ed69U,
  0xbecf53ecbeba1047U, 0x3e8a73cfbdf31066U, 0xbde1bc3c3e71ce7aU, 0xbeac8f7d3d9f8e20U,
  0x3ca0fc593db13ca8U, 0xbe91cfc6bf063fb9U, 0xbe824f38be51b009U, 0xbe0694723d2f83e8U,
  0x3e6a718bbe3d5bd4U, 0x3d138e493e2e6675U, 0x3e8846cebe6adca4U, 0x3e1c5b293ee96579U,
  0x3dca5c803f0acabeU, 0x3e52aa3cbd6fe518U, 0xbe5cf66fbe01cef1U, 0x3de796edbeaa203eU,
  0x3cdd4443bed46345U, 0xbbfc6750bde9d9b5U, 0x3d97762d3d938daaU, 0x3e61a751bf08c1aaU,
  0xbe8cd23f3d8018b6U, 0x3e12208fbd4ca1caU, 0x3e56cde2bd2b5898U, 0xbed2c1193ebf86bfU,
  0x3dd1ba1d3c89d11dU, 0x3db867ab3e54ed59U, 0xbc9dc92cbe865b56U, 0x3cbe8313bd75229eU,
  0xbeba00893d7b805fU, 0xbdeeb3e63d868b23U, 0x3e83b3aebe3edba3U, 0xbec726b4beae0303U,
  0x3e8b43f53e2cfeacU, 0xbe2dc3733e2be966U, 0x3ec6f5763ed04283U, 0xbdf8b532becb7a64U,
  0x3db40cdc3d58934fU, 0xbf05a0273d9d9685U, 0xbe47c3ba3e2dc8a1U, 0xbb304869be7db7d1U,
  0xbdf6d6bf3d1b484eU, 0x3e52d76a3e9aa875U, 0x3b4667963dbb0a0aU, 0x3e9dc87e3eebaa7dU,
  0x3e19ba523df5fdb2U, 0x3e11a6183c001fbdU, 0xbebe5ab2bca27d00U, 0x3e91372abe07a6a1U,
  0x3d701dc1bc8717f2U, 0x3ea3ddfd3f0003b5U, 0x3e24cbe6bcb739abU, 0xbd22a2ca3c7769e5U,
  0xbc1d2fcebe59714bU, 0x3da7ff083d84cd09U, 0xbdc6490e3dafdcefU, 0xbebe43b93ec70be3U,
  0xbe95ef243ecf8ba0U, 0x3a22f408be3cfbf0U, 0xbe2775f03ad816acU, 0xbe0d2931bddaabd4U,
  0xbd87f5873db17c79U, 0xbeaed7c2bd011c21U, 0xbdd68a713c8266e6U, 0xbe3320d83e245119U,
  0x3e8317493e239495U, 0xbe5313ca3cf9b915U, 0xbeace8a93e3c81aaU, 0xbca993f33cb801c3U,
  0xbd2730b13da568d9U, 0x3ed4582cbdf9d428U, 0x3eb0c83a3d9229b9U, 0x3f06fea93f0229d2U,
  0x3eaabd43bc7fe788U, 0x3d9f1841be641ef4U, 0xbd3536763e22ba30U, 0x3d661ff43d334f5fU,
  0xbe10a51cbe08f50fU, 0x3dd20cd7be0375ceU, 0x3d469e00be8cc5b6U, 0xbe1e25163e1602cdU,
  0xbecdcb9bbe02ce75U, 0x3d20887fbf3d9b2cU, 0xbc8169693e4b4981U, 0x3e7bb2c5bd731d7fU,
  0x3eca8046bec01ff0U, 0xbe5f58abbd9dff9cU, 0x3eb3d9ba3db7c8aeU, 0xbdcc756a3dbb7bdbU,
  0x3ea5445abe2eb5c2U, 0x3e53eae13e77b0cfU, 0x3f28798ebe18efaaU, 0x3f33015bbe33dc28U,
  0xbf021b7f3e0cce8cU, 0x3ec9ed42bdae6da1U, 0xbc1100173edaeefeU, 0x3ef279debcabbacfU,
  0xbdb781fe3e429ad9U, 0xbc41dbd93d64e163U, 0xbd322ee0bb6c581fU, 0x3e2db2f93ee19748U,
  0x3e67c4ce3d4919caU, 0x3d4e3104bb748305U, 0x3d07b37ebe0996ceU, 0xbe46abeaba31b15cU,
  0xbe23fe0a3c41cbd4U, 0x3f1103cb3da42fc2U, 0xbe39cb5abc448c9dU, 0x3dfafdda3e305287U,
  0xbdaf6133be7725b6U, 0xbea8757abe71e44eU, 0x3dcb8c99be601078U, 0xbe3d950dbf1b6b95U,
  0x3d500824be1638a6U, 0x3e22efe83eaa8eacU, 0x3e0ee5a03e90eb3cU, 0x3e46a32ebf0f87a3U,
  0x3e8a15353e76558aU, 0xbe2fa01c3e5d7280U, 0x3d80cb43be73ea68U, 0xbe256e1abe0a7595U,
  0xbe403c56beeac3f3U, 0xbe65591d3eb7346eU, 0xbe0a07d6bd681c57U, 0x3ece78f2be68a417U,
  0xbed4664d3c8b331bU, 0xbd7f1d573d668c3eU, 0xbe02ece03e5ad712U, 0x3dabe3b3be12227fU,
  0xbe077844be3edf8eU, 0xbd8caf633f177b6cU, 0x3ea695e23c77b764U, 0x3ded533e3e1a8e2aU,
  0xbf1c2e313dabd4b2U, 0xbe1cd4163e88639dU, 0xbe21fc9a3e1ee70eU, 0xbe80b1413cdbd3b5U,
  0x3e53e81ebc710ec8U, 0xbdae555b3b1ded20U, 0x3e1c9d713e164ab1U, 0x3daa5c8abf16a54bU,
  0x3b3611d53e3a4c06U, 0xbd617f193d6f0abaU, 0xbe0604f63e430a7eU, 0xbe2d948fbdcf70c2U,
  0xbe18074abd72ffdbU, 0x3e60d51c3dcdb305U, 0x3d77c0ac3cc527a6U, 0x3df10c913bbb85a0U,
  0xbd8e7c07bdeedbbfU, 0xbe3602dcbc92aac1U, 0xbe79778cbebb59edU, 0x3e51379c3f0d51deU,
  0x3edae85b3de193a0U, 0x3e9a90563e9778f0U, 0x3efb99fa3e3b81daU, 0xbdc0acc8bf73e172U,
  0xbdcb731abc770f00U, 0x3f0a1588bd25c1daU, 0x3e3603d83f0e390cU, 0x3e6d1e503d690fc0U,
  0xbf3aa1f73b960500U, 0x3da5b7b8beb27671U, 0xbe9f144ec01f4b4dU, 0x3f1f294c3f6b3e48U,
  0x3f0bb7ec3f1f1400U, 0xbe422a463e9f9f1eU, 0x3e40325e3e67ab8aU, 0xbdbf4ba7bf15deb5U,
  0x3d2911633f6bfcd5U, 0x3e34fe0d3dadf603U, 0x3e6574213e741df1U, 0x3de854663e1d221aU,
  0xbde11fe2bc6fdaadU, 0x3bfc7d26bde67c9fU, 0x3e9f86413e14cfb3U, 0x3e0010113ec0d817U,
  0x3e91d38a3e3e5266U, 0x3e86dac93e94ec4cU, 0x3dfa00d73e3c08b7U, 0x3e68d4093eab68ebU,
  0x3e2b454a3e9fb07dU, 0x3d6396c43dc7c893U, 0x3e73b1afbd78ab63U, 0x3ec09aa43e8ad208U,
  0x3e9a984e3e9b18bcU, 0x3e61292d3e80ccbbU, 0xbe17a910bdd8f13fU, 0xbe3565fabe251af8U,
  0xbe458a8abe61f9b7U, 0xbe85af20be361f6eU, 0xbe0747f7be768b89U, 0x3c5be0b0bd115f1bU,
  0x3eb4b2573e1d79b7U, 0x3e9f373e3e9d9354U, 0x3ea48dc13eb9c6d2U, 0x3e1a436d3e746542U,
  0xbd7f7c673da3848bU, 0xbe0a7d33bdcd9795U, 0xbe704b6fbe450df0U, 0xbe4cd4ddbe5eefaeU,
  0x3e3fba803e12ee77U, 0x3e5568823e538e4cU, 0x3e44a4bb3e5d5514U, 0x3e0188063dfa122fU,
  0x3e983d643e5d1a47U, 0x3e8e49163e9849c4U, 0x3e313f523e6a6c46U, 0xbe5c72e8be3edcabU,
  0xbe826889be865c04U, 0xbe4abefebe7e1079U, 0x3f4a33e6be175188U, 0x3f812e483f65a326U,
  0x3f85376e3f8924ecU, 0x3f427fb53f5d6c91U, 0xbe47316dbe115e7aU, 0xbe9b5549be9167fdU,
  0xbe4a45f3be96f3d0U, 0x3dd297e1be35c755U, 0x3e668b003e224963U, 0x3e740e8c3e72b122U,
  0x3e38f2113e59fff5U, 0xbe827653be99edeeU, 0xbe029507be30a75aU, 0xbe037616be2a261dU,
  0x3d0e2ee8bd8f40b1U, 0x3e63d0823de5c2e7U, 0x3e870f9d3e84086eU, 0x3e464b453e6d526bU,
  0x3e776cd33e3bf7bfU, 0x3e9a81e83e9b5725U, 0x3e34b8d53e8514f4U, 0x3e3fa01f3df25067U,
  0x3e421ffd3e58fd76U, 0x3dff3be03e15786bU, 0x395957adbc8fc1d5U, 0xbe9236a6be6b227eU,
  0xbea1335ebeb7355aU, 0xbe8f0578beb0c7c0U, 0x3ea049c7be4c951fU, 0x3c7f62833e0682ddU,
  0xbdec3ca5bd0c514bU, 0xbe9023febe4842d3U, 0xbe2f64ecbde610aeU, 0xbe63248cbe785b00U,
  0xbe467d5cbe6acba4U, 0x3d28e3c4bdd62230U, 0x3e48ea3c3dd1df53U, 0x3e57c8ee3e863ab8U,
  0x3e653c823e4b4f99U, 0x3e1920103de85d09U, 0x3e414ab23e3ad13dU, 0x3e3626db3e7833beU,
  0xbe3785773e3d8699U, 0xbe84b19abe28ae91U, 0xbe843c79be84a990U, 0xbe118c73be484eacU,
  0xbe849f74bf1477e3U, 0x3e3f6b123e5b0558U, 0xbb014b2a3d2cc999U, 0x3e216e283e0ca660U,
  0x3e7d02d93e6b8641U, 0x3e4442433e5a2c8fU, 0x3d9f8ec83e0ffbafU, 0xbe61563cbe191137U,
  0xbe58acd4be786863U, 0xbe5b1f1abe3b32daU, 0x3e4aa085be47c44eU, 0x3e614b873e36527cU,
  0x3e527f493e85ec3eU, 0x3d8f50123dd78a66U, 0x3d076c64be0d692cU, 0x3da36e4c3c99c81dU,
  0x3e33d3c63e49ffb5U, 0xbe8cd3063ea4dffdU, 0x3d8c0035be099562U, 0x3e031d8f3df67062U,
  0xbe9a994cbe1a04b3U, 0xbe81f106be48ef36U, 0xbd24d0f7be6ca2b5U, 0x3e7979143e51b419U,
  0x3e290fafU, 0x0U, 0x0U, 0x0U,
  0x0U, 0x0U, 0x0U, 0x0U,
  0x0U, 0x0U, 0x0U, 0x0U,
  0x0U, 0x0U, 0x0U, 0x0U,
  0x3d61317e00000000U, 0xbf0f10e5bece3798U, 0xbe234e7dbccf9517U, 0xbeda5aea3efc6d63U,
  0x3e88b2ebbe575afbU, 0xbdd67e6e3d14d82aU, 0x3e2b68d43e969c14U, 0x3e039d403f39b4e3U,
  0x3ce1bd9ebe9a0dfaU, 0xbe387644bf252361U, 0x3ec7948e3eadf6fbU, 0x3e22237d3e9c51ebU,
  0x3e79bc363d99e308U, 0x3d46aaabbe3555adU, 0xbf1f0a69be67dd02U, 0xbe1f48fdbe4bf9c1U,
  0xbdbfe6f7bf0c1206U, 0xbee778a13ea0d758U, 0x3e67800c3d3e31b6U, 0x3ef5e71a3d6cb920U,
  0xbea3dd8abe1e0844U, 0x3e726498bc8c1e31U, 0x3ee27f52be5727bbU, 0x3df68acabe4ebfb0U,
  0xbedaca14bdaedb98U, 0x3ece63e13e86cec6U, 0xbc5bcb7d3e91f8ebU, 0xbee3648f3e5bd03bU,
  0xbe8f0abf3ed21a30U, 0xbdcbe5e6bdbeb7f4U, 0x3ea3a155be0a7e34U, 0xbea50fd83dfd8c57U,
  0xbe8b8dc73de513eeU, 0xbc4951683f6e7890U, 0x3c8714a33f3113f3U, 0x3ee46cc93e8a32a7U,
  0xbee7d892bc950eabU, 0xbe6557aabe931925U, 0x3e9536c53dd2f65aU, 0xbeaafb653ec62aaaU,
  0x3e565532bdf32c30U, 0xbd641702be4bd64eU, 0xbefe45583f5e6fa8U, 0xbdb0667dbec278aaU,
  0x3e39c6993c3b1c3dU, 0xbed15242be7efbebU, 0x3ed3715abe81f10bU, 0xbe995340bdcb2bfbU,
  0xbc4ab6233f3b2b51U, 0xbdb5141fbcfb6284U, 0xbda748093dd62cbcU, 0x3e4670c83cd82527U,
  0x3e0bcb723d6bcf08U, 0xbe89b6e4be08fcbdU, 0x3d3041313db6e7f8U, 0xbe6fdd5d3e6e2f6eU,
  0xbd3e6f57bb6c48ccU, 0xbec1c2bcbe63563bU, 0xbdc5afb4bda40f4dU, 0x3b8b066cbe652bb2U,
  0xbd66e892beea2d00U, 0xbde0a1663e0d9e27U, 0xbe1230af3d39adaeU, 0x3e5a3af5bcaa8eeaU,
  0xbeaabee13adcb39cU, 0x3eb4c272bd742ce4U, 0xbe4c3fa33ebd895cU, 0x3d2a3e093d0b0113U,
  0xbf19139ebec9682aU, 0x3eb361363e1587f0U, 0x3f7236363e9af4a4U, 0x3f17fedabe8415d9U,
  0xbf32f3c03f38fe4cU, 0x3e2781fa3df6bcb2U, 0xbe0391933da1ec36U, 0xbf27b5ac3dc24c0bU,
  0xbf1bf01a3e9ae158U, 0xbe81aad13ea2d551U, 0x3e8892e43eff2fe9U, 0x3dcb50623e8a9132U,
  0xbea987f23e13b1f2U, 0xbce32d4dbe364c43U, 0xbe3b797cbeda53eaU, 0xbc37e5edbe2f138cU,
  0xbe54131cbebc6798U, 0x3b78db213e0a15a8U, 0x3f05b96bbe83bb80U, 0xbe7c10b43d89c6f7U,
  0xbdeb7ded3f07d6d6U, 0x3e80cfb83e6a6272U, 0xbeb4eacc3ce8f8f9U, 0xbeb806ab3e02a724U,
  0xbd628bdb3e87da13U, 0xbd518e6e3de5cca6U, 0xbe93b4773e9260e7U, 0xbb02af05bf0b2c3cU,
  0x3e33b4823dc4a809U, 0xbef16d6dbecfecbaU, 0x3ec1771dbe306e73U, 0x3d074f3e3f14158eU,
  0x3efdf708be178cbfU, 0x3dd28da8bf225c07U, 0x3e35d8d1bd943e9eU, 0x3e890e6a3d888f3bU,
  0xbedbe1533cd26cc8U, 0xbe777e64be30a446U, 0x3c5d2d63bd508c8cU, 0x3f847856bea7afa6U,
  0x3e4ddc6dbd38ef8cU, 0xbe3713263d87c55bU, 0x3dde72eabefbae1bU, 0x3e19da363df53de7U,
  0x3f51d38bbe7fc7a2U, 0xbd89ceeebd849783U, 0xbd4db1593e805391U, 0xbe45f78d3d6b96d6U,
  0xbe0e4935bf036b58U, 0x3cbe0dfc3ea4c523U, 0x3ee0bf55be05c507U, 0xbe63abef3afb3931U,
  0x3ea04a6abd9651caU, 0xbe8eb54d3e211988U, 0xbd638eaf3e74f5e1U, 0xbda9538bbe68e951U,
  0x3e863bd8be582b3aU, 0xbdaa8838bda7ee15U, 0xbeb3875dbeb169c0U, 0xbe57a90b3e542a3eU,
  0x3dc34d9ebd8fd602U, 0xbec918bcbf091fdaU, 0xbc5a6e26be91d2d2U, 0x3f3cd6593e1a16c2U,
  0xbd202682be786fcfU, 0xbf1369c3bdd3cc33U, 0x3e3b1f113efb73f4U, 0xbee4a7debe93cec9U,
  0xbe95736b3df5b4eeU, 0xbe795069bede751aU, 0x3d62df5ebdb08ea8U, 0xbd1ee41cbed8ef94U,
  0xbb85c3e73dae6622U, 0xbebcc38b3edc1b04U, 0x3df91391be71a4c9U, 0x3d85f1853e2a98fcU,
  0xbee05e2c3cfc987dU, 0xbef27b0b3efd0c88U, 0x3e612a7bbf66c2f0U, 0x3f1196fc3f445769U,
  0xbdfbe4a83eb5e93fU, 0xbf27c01cbed0fd60U, 0x3e8aa8853e807d26U, 0x3e0a6fe83eb2bef0U,
  0xbf39bba63eec280bU, 0xbea2ab7ebe61599cU, 0xbe6724ffbf0075cdU, 0x3da30deebf03a317U,
  0x3ee1f1a33e302318U, 0xbf7f11ab3e46da24U, 0xbe775e2dbe6fda8aU, 0x3e8cc5efbe2fdd0fU,
  0xbe6c519b3cb6554aU, 0x3e3724f7be5ddf71U, 0x3d8d043b3e209bf3U, 0xbe44dd0bbdd03cc7U,
  0x3e402bae3e1f6c68U, 0x3da5651bbc15336bU, 0x3ea8f479be726997U, 0xbec8dc2f3e1c8fffU,
  0x3da2b6733ebc0973U, 0x3e9125c4be5c4d75U, 0x3e3586c3bdfedebdU, 0xbe8b1705bdf673afU,
  0xbda419793da745c9U, 0x3ddb57ecbe80a608U, 0x3dd8f8013cb79fe1U, 0x3e76db623e06ac89U,
  0x3f09d640bdc6d1b1U, 0xbe62317d3e091ba5U, 0x3eb798f13eb61497U, 0xbe74c4663eb06041U,
  0x3e8e43cabea20f7cU, 0x3ead4dec3ed8371dU, 0x3e6b63b9be57b830U, 0x3f32bf9cbea4430eU,
  0xbe48b0bfbdce58c8U, 0xbe27df5b3e904cc6U, 0x3eed831b3ef135cbU, 0xbe1e129bbe026fa1U,
  0x3ecb3120bd47fac8U, 0x3eb99f2dbe8a6919U, 0xbea34ed3bf027882U, 0xbe03f23c3f1a6b2bU,
  0xbd4c05663eab8231U, 0xbecf0eedbe38fc1aU, 0x3da4ea0fbd6a64cdU, 0x3ebfff5f3ec6e39bU,
  0x3e13685e3e64a45fU, 0xbf175b01bd60a035U, 0x3e98e05c3ef56a58U, 0xbe998c473ed5e634U,
  0xbf4828ef3dd0bc4eU, 0xbf11983fbe61127aU, 0xbe69507f3e01b551U, 0xbd0e1674bee4358dU,
  0x3e98efcebe4c1156U, 0xbe2366f83ed52434U, 0xbceb66ecbee315a0U, 0xbde290c2be9c9e56U,
  0x3b959193bd0bb958U, 0x3d6e669e3f05a7f6U, 0x3de13170bea078d1U, 0xbdf8cc8a3dfe5409U,
  0xbe8597363e9a13b9U, 0xbe177a62bd4754abU, 0x3ecabe823cbf8a4eU, 0x3cc0b194bd5ffff0U,
  0xbf2050f33f294527U, 0x3e53c111bc6b2ffaU, 0xbebac0173f3b1e1fU, 0xbecc563d3df18c39U,
  0xbed6955f3ebd55dcU, 0xbf1ed0a13ea54fe9U, 0xb9c7bbeb3e9fdf3aU, 0xbd7073433f060202U,
  0x3dddca343ded93f6U, 0xbe46a7c3bc88b796U, 0x3ef8d7f83e26ba79U, 0x3e7b8649bed83176U,
  0x3f03cab33caf8c15U, 0x3ed7beb3bedc7d5aU, 0x3f318a9ebe72cee6U, 0x3eab59263ef6bbacU,
  0x3f181ab0bed5e72eU, 0x3f0675acbee683a6U, 0xbd9d1bf3bd9aee46U, 0xbf01c0e9be8455dcU,
  0x3d98f9a6be45fa80U, 0x3d7e0d1a3e3266e1U, 0xbe388f23be3a1863U, 0xbdd7de1c3dbd3715U,
  0xbeb46fc33e2be187U, 0x3db3007d3e83356bU, 0x3e220dca3e9b27a3U, 0xbea9745bbe2c79cbU,
  0xbf3dc341be1c320cU, 0xbe454edf3f19683dU, 0x3f375c793f1faec0U, 0xbf09d333be42d213U,
  0x3ed316e93ebe2b3eU, 0x3d5d21413ebf6603U, 0xbe9a0aea3c4babf1U, 0xbe7c18d1bd5b6e25U,
  0xbddaa6aa3eadc994U, 0x3f1d48133da5b1b4U, 0xbe867fe6be3bf1bdU, 0xbe9a7e92bec30e25U,
  0xbdfca65dbe2036d0U, 0x3dba80b73c62aafbU, 0x3dfd4afcbee9fa01U, 0xbde497e43e3eda45U,
  0x3ddbc2d3bd2c2c55U, 0x3e4874aebe39e75fU, 0x3f4944263d72c3b2U, 0xbeafd8c03e17c4e9U,
  0xbb36d15fbe7964fdU, 0x3d3b5f403d12df3cU, 0x3e90cd883ec73befU, 0x3c19b75bbec0957dU,
  0x3e67d56b3ec0afb8U, 0xbcb175463f470cabU, 0xbcf3821cbf05c992U, 0xbef85603be2bfa59U,
  0xbe885108bdcfb97cU, 0xbf2b31d0bd8c0486U, 0xbe31fec5bdebb1f9U, 0xbe57a6653e9a1e2bU,
  0x3ea4bb88bef608afU, 0x3c21b9e73d22ff0aU, 0x3d3ce7cb3edfb033U, 0x3e8a5fbf3f2c92f3U,
  0xbe5f4e0ebd53a9d1U, 0xbdaf23b8bf33cbc8U, 0xbe6c90a83e6fd7dcU, 0x3eee116c3ec7562fU,
  0x3ea6bcfc3f0a0c15U, 0x3e2d1ad9bea4d843U, 0xbebd4e40bcd034a6U, 0xbcaed8723de43038U,
  0xbc432bebbcd22755U, 0x3d17f4acbc8bbf5dU, 0x3e66bd04bdf22001U, 0xbd6775723cc0310aU,
  0xbd0b3b823dbdda08U, 0x3e08f4eebdae94b5U, 0x3fa7bf2d3e42af14U, 0x3cc5c80b3e664d85U,
  0xbc2647b7bebfddc0U, 0xbe018685bd293bfeU, 0x3d25b233bcf5054eU, 0x3ed0bfd63e70289eU,
  0x3e162d023da20c28U, 0x3d0dbe5e3e154498U, 0x3d008a00bed2c305U, 0x3c4b5f093d1d8632U,
  0xbf021ec2bc242386U, 0x3c62a76c3ea36c00U, 0x3f42c7f83ca409b5U, 0xbdda4c553e5c0d0dU,
  0xbcbe9ade3da02b09U, 0x3e190ecbbe822437U, 0x3f985db93c086d88U, 0x3d2a0286bee208fbU,
  0xbe755487beaa5d1eU, 0xbe4f4580be04fd84U, 0xbf2b019a3eee87dfU, 0x3dd7c9003f11acadU,
  0x3e2ab49abc351407U, 0x3ea86972bd0b6451U, 0xbf56d996becaa04fU, 0xbe863a263e83f4a7U,
  0xbf24489dbd2561eeU, 0x3f0e4c8ebe44d7c3U, 0x3e460fefbeb07c79U, 0x3ebe5d20be408f05U,
  0x3dcb178ebe12d9daU, 0x3e3f4facbe14a60bU, 0x3f897ca8bdeab6faU, 0x3d7523333e99bfdfU,
  0xbdb04df53f0d7a3cU, 0xbdb020d13d673e39U, 0x3e8a9877bea5ae5aU, 0xbf3a8f3dbf17522fU,
  0xbe9162b43e73b4bfU, 0x3d23778b3ea64c62U, 0xbefaa7df3ee89c75U, 0xbe6f1d24bee66f01U,
  0x3e6d548cbee70a81U, 0xbf3d0bdd3ec2a515U, 0x3e0c62bfbe1c6c27U, 0x3e67f7503f4c7b56U,
  0xbea4fe463dd7eb1bU, 0xbe33ea8dbf1df59cU, 0x3dd2ff3c3dbd214cU, 0xbe090c183c280fc2U,
  0xbf11d895bebd17d0U, 0xbed59fb7bee04fb5U, 0xbe43e901bd76f355U, 0x3e8007dfbe8f6550U,
  0x3ed77e523f2da258U, 0xbf81ef593efc6caeU, 0x3d3b720fbed46d9fU, 0xbe8836103de3b931U,
  0x3f56a5323e933de5U, 0xbf3331aebd50b607U, 0x3f10dbfc3e483aa6U, 0xbdb28f5ebd5ea40eU,
  0x3db247eabf74ed5bU, 0x3e99fb3abf1ad8afU, 0x3f0a5f5b3e546a2cU, 0x3da56dcbbf09f2e8U,
  0xbdb704613e6136e6U, 0x3f0e383cbf49b18aU, 0x3dfcbbe73dd0f4faU, 0x3e492609bf13eddfU,
  0xbe0d69a1bf8fa0f0U, 0x3f007458be22427dU, 0x3e421350be6b0e52U, 0x3eb5ea5cbe832830U,
  0x3e1a7bc8bdf1cc3bU, 0xbd6977ddbda0a9d9U, 0xbd8a0b0fbf397d13U, 0x3f1057a93cc63a42U,
  0xbf18d38c3bcb77f9U, 0xbd6c3edb3e3b79b8U, 0x3f225c353e894fb1U, 0x3d31de183e51b37eU,
  0xbdd7e77e3e912dedU, 0x3ec4722e3e9e5756U, 0xbd365c463c108f40U, 0xbe01bd78bd6b1af2U,
  0xbedc7df33c1c60fdU, 0x3e1d6cd53e997ee1U, 0x3db399843e6330aeU, 0xbe7a39993e47c9b3U,
  0xbdc97eb3be2b390dU, 0x3eb583533f09168dU, 0xbb8b60413e78d687U, 0x3e723310bb95e17fU,
  0x3e583f07be6c03b9U, 0x3e8ecd993db33136U, 0x3f6e80dabd41d021U, 0x3f1b7efdbcdc0124U,
  0x3d1e67fcbe63d3cbU, 0xbec80ded3e007338U, 0xbea078b73dea0ab4U, 0x3df6ec79bd91c5d6U,
  0x3ecb294ebe849fabU, 0x3e82c8193ee59dc7U, 0xbf3658c3bd0bdddbU, 0xbe5393743e82195bU,
  0x3e8cbce03ea782deU, 0xbeb43e3cbe981dd3U, 0x3dd06b693dbdf25cU, 0x3e02f1d23c92f267U,
  0x3ec1a005bc980b98U, 0xbe12c1a8bf0b2b4eU, 0x3e9d7dbc3d80f6f1U, 0xbe879e8fbe26d874U,
  0xbe5410d93d9fe5cfU, 0xbe1a8a83be977fe8U, 0xbd8a2aa23d6650cdU, 0xbc2da332be8588eeU,
  0xbe730a25be69072fU, 0xbdaeedcb3dbfec6fU, 0x3e586e0fbd916340U, 0x3e7b7efe3e37383eU,
  0xbce7348cbe32d79dU, 0xbe31ba89bc1ef31fU, 0x3ba80b443d860d30U, 0xbdac4614be1a73e9U,
  0x3e8a30f6be461962U, 0xbd50f134be390e93U, 0x3e8723903eb9499bU, 0xbea69a5abe133ca5U,
  0xbe0bd20d3e7d07d4U, 0xbe306ec6bec12a7dU, 0xbe4c7f993dfd4b9cU, 0xbe39aa2bbe4f9d95U,
  0xbd703d06be93bb66U, 0xbe9f619abe96ba97U, 0x3e1ce540bd416088U, 0xbd8a7c693e270b31U,
  0x3d256ed03cae2575U, 0x3d523c113daba5b1U, 0xbe668e07bda8b793U, 0x3e38be193d2ca14eU,
  0xbde973b9bdfa6e2bU, 0xbe4afdff3ea83a8fU, 0x3f73ab46be8e9502U, 0xbde5cf773e222b39U,
  0x3e23486abef86e9bU, 0xbe1688c1be90e73dU, 0xbe3148cf3e677b59U, 0x3e4d228ebe37cefcU,
  0x3ef121fbbdaf5f8dU, 0xbeb1e577be691b90U, 0x3efcecebbe65abdaU, 0xbe82db673eb31da8U,
  0xbedacce33c58f1c9U, 0x3d22fa603df0a8ceU, 0x3dff03a0be1b0a22U, 0xbdc5fb67bcc43633U,
  0xbee51d153e20906eU, 0x3e6ebf963e995a19U, 0x3f369cad3ed51268U, 0xbe893c2c3f6ceba4U,
  0xbe7890453e80bccbU, 0x3f2455b33ed3a939U, 0xbeb29a6cbd233087U, 0xbd1f0d603d81c012U,
  0xbe3db900bd198a24U, 0x3ea51335befa2314U, 0x3e5939e53b8f63c5U, 0xbed856b2bdbe8084U,
  0xbed8a1853dfdb653U, 0xbeb351093e46ef59U, 0x3f227a953df90063U, 0xbe846a133cbe5a69U,
  0x3ea963f4be4d0635U, 0x3eed7bc4bd6623ecU, 0x3f5309c43d84d8a4U, 0x3e9253d4be5570aaU,
  0xbf159f7dbe6b864bU, 0xbe4f4c433e040b40U, 0xbf10801a3edb461eU, 0xbe2858483d40395aU,
  0xbe9127483edcc546U, 0x3f33d59cbdf3d749U, 0x3eee4d29bedacc92U, 0x3dba04683e749cf9U,
  0xbddc6bccbe578c29U, 0xbd21e90ebd3be665U, 0x3d4dd3703d958d5bU, 0xbedad2123dad523eU,
  0x3f004f02bd9011eaU, 0xbe0b7393bea930e1U, 0x3ed433ce3f5773c1U, 0xbec66b0ebc19ed5eU,
  0x3d710318bd5050c1U, 0x3be593cd3dd2b849U, 0x3efa80c33e03093eU, 0xbe79eabfbe667721U,
  0x3dde5cc0bf1e8810U, 0x3cc232183e36e82bU, 0xbd9041a5bc998e9fU, 0x3aa8eaf83e7bc824U,
  0x3d64c83cbee8530fU, 0xbd5965e43e29e8ddU, 0x3ec30abb3e59a51aU, 0x3f4001923ef3e0fdU,
  0xbe10a82a3de7d003U, 0xbeec9c91bedf1147U, 0x3e7d00d13d803b15U, 0x3cb28bd03e76894dU,
  0xbf869e693e29f2c5U, 0xbda8be0ebd7c8523U, 0xbea88e523e4c2622U, 0xbda811c2bf186444U,
  0x3eaf2dd43e77b8b8U, 0xbf300eb43ef7a0e4U, 0x3de03460beb2ac62U, 0x3e5a69b9be14316bU,
  0xbd39b981beef3983U, 0xbe90c53d3e5744f1U, 0xbd7a8f9fbda42df9U, 0x3e1d2502bcbf18beU,
  0x3e28e1253e32e418U, 0xbdcb5d45be43ff9dU, 0xbe06455e3e2ca5a5U, 0xbdb98422bd978a6bU,
  0xbdfa2aea3dcaec3dU, 0x3bda00ce3d5ca863U, 0xbe4a798e3d6d7fa4U, 0x3c8dc7553d58f0e5U,
  0xbc739a05bd64a8c3U, 0xbe1f2962bc6845ceU, 0x3daba4db3e27fd91U, 0x3cebf09d3d9337d7U,
  0xbdd011c93e2da88aU, 0x3d00f863be787ee3U, 0xbdf9d9d13ec5dee1U, 0xbf12a5c63ebb7301U,
  0x3d140f10bea00cafU, 0x3e48c5fdbe663436U, 0x3d93309b3ed4cfb5U, 0x3e7b4efd3f84f324U,
  0x3e3d289bbf22f848U, 0xbd6bf122be72e860U, 0xbf319b023f48de28U, 0x3e3714a23ecd3827U,
  0x3e8265babe4e2fd1U, 0x3c562513bf14bad2U, 0xbe407451beec0c04U, 0xbed3ae9abde23e20U,
  0xbe9f00cc3d1dad68U, 0xbdac739abdfccb92U, 0x3db1d338bd83c1f6U, 0xbe239a603e3b125bU,
  0x3f51010b3ed7e886U, 0x3c9687a2bce9f874U, 0xbf19df2b3eef7df0U, 0x3e26e47c3e0eb735U,
  0x3d4e3bac3eab876dU, 0x3de39b47be3a4756U, 0xbce3238bbe2f6606U, 0x3d2e5af4be6f91b0U,
  0x3ddf7e2abd359a25U, 0x3e61708f3dc9b0a3U, 0xbdf1b0b53eb60239U, 0xbd4964573d3e3471U,
  0x3e4eb447bdb70916U, 0xbf2a6bb73dcb5c20U, 0x3e9d1d8c3dbdc4bbU, 0x3e88dda9bdf01556U,
  0x3e3ffd39bee436c1U, 0x3da6ce9ebf1f4056U, 0x3f1027f53e00fa7dU, 0x3edabee2bebf44d3U,
  0x3cfcf91fbe607033U, 0xbe02f4dfbf5e6d5aU, 0x3e0590e53ddaf2f9U, 0x3f4c8ed7bd892cbcU,
  0xbe9ea8d4be9d1ef0U, 0xbed75dddbc5b3df4U, 0x3f13ef37bf5431b6U, 0x3d9f9cfbbd4cb91cU,
  0x3d6d4d143e5b7cbeU, 0xbf03be65be515e8cU, 0xbbc8b0673e4cbd9dU, 0xbd4e63e63cec9f6eU,
  0x3eabd06dbebb5ddeU, 0xbe57f0babe81eb4eU, 0xbab646643e68c43eU, 0xbece08963e284734U,
  0xbe31dfddbe05ec02U, 0xbc6a4ab0bec0a3ddU, 0xbd4659ed3e46d965U, 0x3d5376b5be5b1caeU,
  0xbe2555a6be9ffcaaU, 0x3d98da543e5fc570U, 0x3c92c4cc3e372d37U, 0x3e31aee73cdcf2b0U,
  0x3d093f85be3e44f6U, 0xbe0ef5d93d026562U, 0x3d6eebb03b8ba711U, 0x3df889debd281f2eU,
  0x3e00a63fbe9baae0U, 0xbe0d0a97be34d6d8U, 0x3e508f333e4a170dU, 0xbe1e2c45bdad1b0aU,
  0xbdd177743c217428U, 0xbe7aea49bde7ece8U, 0xbe568d87bc3033bcU, 0x3bed1f48bdd4e198U,
  0xbdedfaa4be5f3ca1U, 0xbe38958d3c8594b2U, 0x3d021909bdac0b52U, 0x3e0b79db3db290d7U,
  0x3e5d0a7fbdbaacf5U, 0xbe63894fbee0f6dbU, 0x3e8b5ee63de6fd7bU, 0xbee1e89d3a8f8e2fU,
  0x3ebe63eebf169aa1U, 0x3ea95609bf021953U, 0x3edecdea3ef5a13eU, 0xbe55199cbe72e263U,
  0xbc5e6f22bddbabdcU, 0x3f3f0828bf079b0eU, 0x3e9b0fbf3f0966efU, 0x3d51fab6bf15672fU,
  0x3e2a9030bf2b0e55U, 0x3eb11895be478907U, 0x3deb6fb7be31b495U, 0x3e7e6f463ece2ec7U,
  0x3d702ad7be3d75bcU, 0xbeefcb5b3e59af3bU, 0x3e0b92753e94b81fU, 0x3ecdf77b3f17def8U,
  0x3cfa4946bf0f0d6aU, 0xbe12ba46bd06267bU, 0x3e2513733df8045aU, 0x3d18557c3e89d7f2U,
  0xbf1d9e6d3ecb8c8fU, 0xbe57a5cdbef98bf7U, 0xbf114f7c3e456238U, 0x3f204831bc41a543U,
  0x3e1a48663ebcafc4U, 0xbe873790bcfe529bU, 0xbe557483beee60bfU, 0xbc59b50b3d933697U,
  0x3dc90183be2ee88aU, 0x3d8b076a3cc3e35fU, 0xbe80da653d3313c7U, 0x3e9b13babead4f71U,
  0xbf1e340c3e2ea997U, 0x3bcd3ae23ea9e71aU, 0x3f1346c3bdedb97eU, 0xbecbb3623e548779U,
  0xbe333f5e3ef17948U, 0x3efc781b3f00a2d1U, 0x3d7c9cbcbe7c0193U, 0xbf31936fbe7fce63U,
  0xbe800329bd01b550U, 0x3f0e3076be3bbceeU, 0x3d9b5d0f3ed9d795U, 0xbe6a1f51be1ea86eU,
  0xbc3f75593f052885U, 0xbeb73e3dbe73fc7aU, 0x3e141bcdbc39f913U, 0xbde60d173d8b0623U,
  0x3ed5af363e25004fU, 0xbe35a4b8be7a67e7U, 0x3e9c2a9f3d6d9d87U, 0x3c3d8d0dbdbc1e3dU,
  0xbe8aa8893d8f7de5U, 0xbe90fabebe8d4b99U, 0x3e2a2cdd3e609108U, 0xbdf4b3cabe4e10d8U,
  0x3e02b3adbe5ad751U, 0xbdb6ba933e597cb3U, 0x3e225d843dd80cfeU, 0x3e54a7703e07d507U,
  0x3d856148be09e57eU, 0xbe4393c5bebd6a7dU, 0x3cc9ce923e58132eU, 0x3e8403febbc0e8ecU,
  0x3dbd0eedbe9c3c9dU, 0xbe7f23f9bebe9e8fU, 0x3e99157a3ee6bf00U, 0xbed2da7fbddb05e7U,
  0xbda888193cf189ddU, 0xbeb4a4f5bcc425f6U, 0xbe419c84bdbc4084U, 0xbe04f440be2b9efaU,
  0xbd8efa02be32bc05U, 0xbedc8225bcff090cU, 0x3ea24333bcb40977U, 0x3dbcc3283e7818f9U,
  0x3ec1a9b53e93b4f1U, 0xbe5efaddbe5c593dU, 0x3f253b233ea32ff3U, 0xbe03656f3eee4f4eU,
  0x3cbfb7103e045293U, 0xbd40a4d4bdc48d0cU, 0x3f9d7f773eb370d9U, 0x3ea0d73c3dcd7ef0U,
  0xbed8ebda3d9b047eU, 0xbe1cb11f3ce0994eU, 0x3e3686763e89cf96U, 0x3e7d4e633eae8521U,
  0x3dd81ababe24b97dU, 0x3e573b833d39e743U, 0xbe8bdcb8bf26e043U, 0xbe4a5240be60a419U,
  0xbec53e9d3e219e59U, 0xbecaeef7be73943cU, 0x3b66da603e210f27U, 0xbea3a2bbbe6d3751U,
  0xbda62803be73b6bbU, 0x3f0a52913ed6b299U, 0x3f24c7573e80ee37U, 0xbc9916e7bd8a9b6dU,
  0x3ddcaa3abe8becbfU, 0x3e906cbc3f027cdaU, 0xbe43df103e6113d3U, 0xbf9e50f8bf13bb95U,
  0xbc7c30ec3ef42b23U, 0x3f2b7914bdcf0bb7U, 0x3ea3dcea3a967314U, 0xbee2dabebe036709U,
  0x3e8b767d3e0ebbceU, 0xbe0015093e8ec197U, 0x3e370bdebca3ff6bU, 0xbe8e9fc0bd28da24U,
  0x3e9c7d82be349531U, 0xbe069c7ebe83d58fU, 0x3e76b2dfbdde3d87U, 0xbe38a0173e0b72a8U,
  0xbd94a9523e84fc31U, 0xbe5e450abec16763U, 0x3e9db2b4be6307ddU, 0x3d240b6bbd934a16U,
  0xbd9e743bbe5eb6caU, 0xbe92c495be9c0150U, 0x3ef24674be5d7056U, 0x3ef4d553bddd695dU,
  0x3e8999773e18d716U, 0xbe9c22db3cbc8f73U, 0x3e436a0a3eb9d229U, 0x3e1213293d6e8e2eU,
  0xbccc6f85be3831aaU, 0xbe54cb41be8bda46U, 0x3e8084aa3eb596feU, 0xbea353a5bd949177U,
  0xbc0cfff53d01a677U, 0xbf0967fcbe1d94d7U, 0xbe5afffabce7ba39U, 0x3e331dcbbe8f0bb1U,
  0xbce04da7beda8c25U, 0xbe03ef013df55680U, 0x3e53b215bd93f1fcU, 0x3cdb7dcd3de5aef3U,
  0x3e711d083e137554U, 0x3e58d26c3e8ac158U, 0x3e1454a63ec7b086U, 0x3efe304b3d3ee0f7U,
  0xbebb7898bebdc8caU, 0xbf09ec60be80c376U, 0x3e8e46f43d89a628U, 0x3e31dc553e88804aU,
  0xbdbded98bf057a1cU, 0xbe2d172bbe939989U, 0x3f3157d5bda3ffa4U, 0x3e82bf16bc17e76aU,
  0x3e1a5edebf3984e0U, 0x3e2b8a233ee239d7U, 0x3e1ff633beb04f4fU, 0x3e327dd4beaee0ddU,
  0xbe024d213e05c71cU, 0x3f1c0ba7be339eadU, 0xbf08cef33e9bdebdU, 0xbe9780a03e13bb7eU,
  0x3f02d722bd889438U, 0x3e520a60be95e98eU, 0x3ca601293e774463U, 0x3ef171003f21f3e3U,
  0x3ca39303bf3f0a31U, 0x3ec99c1d3e59568cU, 0xbd8b47d83f7d6683U, 0xbe02a6263dabd334U,
  0x3e31d978bf284504U, 0x3f001c89bf2623f6U, 0x3bf666f7beb033ecU, 0xbe8b37c7be20e1f0U,
  0x3e9cd4e0bd17d50fU, 0x3d8cf8883e74ea0cU, 0xbc806b643e9509bdU, 0xbeb51a20bdbdff6bU,
  0xbe11f6efbee1681dU, 0x3f13e243be3113d9U, 0x3edae883be87938aU, 0x3ea3dadebd955891U,
  0xbe31af60be90c5d6U, 0x3e9976923e2cee1aU, 0x3e5afed63f8104abU, 0xbef4b756bbca172fU,
  0x3ede99523e930058U, 0x3c097331bee8faa7U, 0xbecd6e81beda9888U, 0xbe7606883d9f29e5U,
  0x3d06e8283ec78efcU, 0xbe426e613ec8bb8fU, 0xbe8d4a42be5f5b02U, 0x3dade687be48afbdU,
  0x3e1d9a36be760d34U, 0xbe64c5b9bcef75b4U, 0x3df43bdf3f67302bU, 0xbd5b08563c345f18U,
  0xbe935df03e9cc8a5U, 0x3dc2d4c63dd8546fU, 0x3e34c8e63d57075cU, 0xbe74ef45bdbfb4eaU,
  0x3ecd34d13c8e1b53U, 0xbe834674bc82745eU, 0xbd774b343e91b630U, 0x3ebfc3d13dcd3f48U,
  0xbdc8559abf009222U, 0x3d4c6b673ec5d60bU, 0x3ee2a8703e73c5a9U, 0xb88e9fc03e2d79f3U,
  0x3d942f76be4a1768U, 0x3ea913483e8b2335U, 0x3f06f6563ce3a769U, 0x3f6162fdbc9d5662U,
  0xbea8b6d83caba8c8U, 0xbe5840aa3aab0523U, 0x3d6c473b3e728011U, 0xbe1695933e61c541U,
  0xbe852b523d8fdbcdU, 0xbd134f763dfdc51aU, 0x3e85a919bdfb57d0U, 0x3eaf322f3ec3a9aaU,
  0x3ef854a5be54e271U, 0xbeb03dd6bd5f4114U, 0x3f22fdb3be9cc2f0U, 0xbea92fa83e09613aU,
  0x3e95fd713dde2941U, 0x3ea2201dbec22eccU, 0x3fa603633ddf21bdU, 0x3d1efe9e3e6d5ebdU,
  0xbce418f63d8aa793U, 0x3e261bdabe89c97fU, 0x3e74a0b23ed2e0e0U, 0xbcfe947f3e06baf8U,
  0x3eda31ac3e715ad1U, 0xbdfc2ca8be576206U, 0xbe6e3d35bf30df29U, 0x3f07c448be19b770U,
  0xbd88f5923dd0a37dU, 0xbd728de23e7c70a4U, 0xba701d91be1ce3a6U, 0xbecdf1c3bce0b7beU,
  0x3f036e00bcfa6a3aU, 0x3e3c2e32bdd37f71U, 0xbf5ff278be8fcb89U, 0xbe568655bf044de4U,
  0xbbdc5c12bf095dedU, 0xbeeea43dbd779bc2U, 0x3e9bb3963e02e3cbU, 0x3b5eaced3ef0fd98U,
  0x3d8266d8be8d4059U, 0x3ebbe52fbe9c2ea0U, 0xbf145ecb3f52f2faU, 0x3e71076a3dd78368U,
  0x3e2713823ee2d310U, 0x3d1c62383f2c59f8U, 0xbda95727bc234646U, 0x3e50095a3d8c8ad6U,
  0xbee301d33d2c23edU, 0x3d77de6f3e3a2380U, 0x3ed9b9653b6bf887U, 0x3f162f8fbed68f32U,
  0xbe787604be28ef14U, 0xbdab78013df80bf2U, 0xbd3224ca3f14cb6eU, 0xbe689f8abe20d940U,
  0xbe822d7dbd2a2838U, 0xbe4e4abf3e98f5cbU, 0x3e1846e0be4a84d4U, 0x3d2f8d693eb4d8f8U,
  0xbe05bb4a3d857f51U, 0x3d7626d53e3bb526U, 0x3b8c81f8be46cc3bU, 0xbeccb476bcd7353cU,
  0x3ef67b07bdd355bdU, 0xbe9942d0bd193351U, 0xbea3161e3e9d2c57U, 0x3e2c80ec3e6f9e83U,
  0xbdaaa92d3e9ba925U, 0x3d2ce0843e16b68eU, 0x3e11ae0cbd6fea49U, 0xbec7ce11bdcf2474U,
  0x3d9d242abeb16b74U, 0x3c5ba8013c6e8ad7U, 0x3da2ad563e9f30d2U, 0xbd9486f3b8d09165U,
  0xbae33dedbe239427U, 0xbf009e23bea00398U, 0x3bb0e433be4ed51cU, 0xbda2fbfb3efb715aU,
  0x3e8f422bbefabdbaU, 0xbe9a18803e42af7aU, 0x3e6a1d2a3ef55fc5U, 0x3e6729413ecdf856U,
  0xbea8fb9abe0092a9U, 0xbefc9921be9c13adU, 0x3db327babe6ba8f3U, 0x3e8e0bdcbc1a08d2U,
  0x3d9d8a67bd1af4bbU, 0xbe6289cb3ea61314U, 0xbef0aa61bd595864U, 0x3d8e33b0bec65125U,
  0x3dabb3ebbd54b667U, 0xbe78b52abca948b7U, 0x3c90ab8f3dd0fa19U, 0xbe86fd8bbdb9e6edU,
  0x3e851e57bf17540eU, 0xbe20c0db3c869fa3U, 0x3de0b3dc3ec7d987U, 0xbddaaa2c3dcd06a5U,
  0x3cce3e263e58b77cU, 0xbe98686bbebef069U, 0x3e2e44f5bd53ddbdU, 0x3cd6e5b63d91dec8U,
  0x3e52df713d4a3641U, 0xbd607a403e8afff2U, 0xbd8faea23e3176c2U, 0x3e32d0653e620e97U,
  0x3df1de46be931fc3U, 0xbd7abcb6be4d1ecfU, 0x3db95320bf208271U, 0xbeee1ecd3da65814U,
  0x3e05681abd1fc3daU, 0xbd2be4b83d0fa12dU, 0x3fa70726be3946deU, 0xbecaf91d3e932f29U,
  0x3e74efd2bea3aab2U, 0xbcb0b2f8bed03e6fU, 0xbe18e4fc3ed2b84cU, 0x3e2766bf3ddfb726U,
  0x3ea66a71be5434e1U, 0xbddf55433f02f519U, 0x3de01222bf6581dbU, 0x3daa1c96bdd3e55dU,
  0x3e9de8d1be03c163U, 0xbd2fca9f3de7c0e2U, 0xbd820b963e8aa0a0U, 0x3c0d895ebe833420U,
  0x3e9b5c5dbf0e29ecU, 0xbe5bc39cbe58fe55U, 0x3ec783b33ebe71a8U, 0x3e3bc753bdc09e33U,
  0xbd1686e8be271f10U, 0xbf22a210be548593U, 0xbeaa7b79bd7a23e7U, 0x3e0f1c38bd799488U,
  0xbe2ab437be015979U, 0xbe187710bea298e7U, 0xbd80d06dbddca868U, 0x3bd159733d1244d1U,
  0xbe4a3adb3e40df2eU, 0xbeb316e1bd0f2361U, 0xbcf0a6483cdb92f7U, 0xbd78b3653f18258eU,
  0x3e97d4cfbec8fcafU, 0xbd9bc2bbbbfae88cU, 0x3e4a57353edf9e50U, 0x3df85ea03f17f4b4U,
  0xbe5bcc19bc15aff5U, 0xbe248d40be0ae902U, 0x3eba621d3e3e4cedU, 0x3e82f778be12499dU,
  0x3ec57f9abec63c53U, 0xbe8fc389be1316e3U, 0xbf08a0d0be0e57a5U, 0xbe00bfedbe2f518dU,
  0x3f13b7dbbe2e5bd9U, 0xbd8ecabc3dcfc885U, 0x3d96b5f4bf24df5fU, 0x3e77d5c73e54f797U,
  0x3d8db4973bd5e3c6U, 0x3dc9635fbebf106aU, 0x3f6d3cfebeaae881U, 0x3dca2fdbbcaaf3d2U,
  0x3d9c99afbccc8c7eU, 0xbe6da91ebe15b883U, 0xbe415faa3f337576U, 0xbdc0aba83dbd509dU,
  0x3e173b6f3cc73d34U, 0xbda5d6f3beddfaceU, 0xbee1d845bf1a7444U, 0x3eafefbebe26b5beU,
  0xbc2555f1be8e291bU, 0xbd8ee1f33bfc691bU, 0x3e5fccf43da31e88U, 0xbf29675ebd4d91c9U,
  0xbf2c238dbf51f7deU, 0xbd0e812e3e28ecc6U, 0x3f5792853e817702U, 0xbda364db3ef45045U,
  0xbcbd315b3f2a6bbcU, 0x3d9a4d553f801b4dU, 0x3e7f5e303ea8c3b4U, 0xbefbdcc5be7e8c03U,
  0xbec82ea8bdcf1aebU, 0x3edad9aa3e113a0dU, 0x3e4a7fef3ed2f0a7U, 0xbf0ef604bd7962a9U,
  0x3ddd7cc5be845317U, 0x3d8328aebe5c7e47U, 0xbc8a1db13f05c23cU, 0x3e95f6cc3f07f0e0U,
  0x3e828dbbbe76ea51U, 0x3e4fccb9be0b8dcbU, 0x3f9a1c35bd98260fU, 0xbdc0f83abd438e5aU,
  0xbd16f79abda3cc25U, 0xbec7e6a3beccf325U, 0x3ea8058e3ef89fd0U, 0x3d259de5be443cd7U,
  0x3f2082b23e351659U, 0x3e85c42abe793cd9U, 0x3e749c17bf4e4cdeU, 0x3d4e04b43e2c2529U,
  0x3e9e97db3e7d0e89U, 0xbe7912adbe86a6b5U, 0x3f02ea23bcbab406U, 0x3e8385d73f2d9633U,
  0x3ea6854bbeac8913U, 0x3cc37294bf7e8bfaU, 0x3ea6012639f4a15aU, 0xbeb235de3e394ca7U,
  0xbea7d8c7bec804f0U, 0x3eebe42f3e35d514U, 0xbb02e3fe3e2b7f00U, 0x3f275cb6bf274505U,
  0x3e81c0f4bf2e3ea9U, 0x3e8130553e58cda5U, 0x3e0bd01bbf24cb3bU, 0x3d1c2ef8bda03deaU,
  0xbf3aa7eabe13b7e2U, 0xbda324eebd15c205U, 0xbf3505c23f6ae6e3U, 0xbeb94e4abd4328a0U,
  0x3e91a8f33e431ac3U, 0xbe7911aabc1e283cU, 0x3ee4b1673de54f95U, 0xbeb5da963f402a06U,
  0x3e1d4aa9beda6506U, 0xbee8c293bd7053b5U, 0xbee1a9203f74e8e5U, 0xbef61a193ea67071U,
  0x3d9ca5843e8caf85U, 0xbef47811bec48a93U, 0xbd264c4c3d0cd165U, 0xbf0b55c33d83d082U,
  0xbe85eb05be848d4cU, 0xbec9b25abe9e6ddcU, 0xbe7b41573cef0165U, 0xbc807fad3e47d72eU,
  0x3ead58a2bd65866aU, 0xbe68cb223d2c025aU, 0x3ef0ae1ebddcbbacU, 0xbdafcb563eaf697dU,
  0xbe6619dcbd82edc2U, 0xbea02600be8bf366U, 0x3eee55073db4ad09U, 0xbebad449be0e1b17U,
  0xbe835b0abe9c8742U, 0xbe5c44d7bda1f0b3U, 0xbeaf19a2be148077U, 0x3d1917bbbd74fc36U,
  0x3ef2f02f3c9b2e72U, 0x3d977ddd3d161cd3U, 0x3d6723c53d099b8cU, 0xbe530ddb3c9accc6U,
  0xbe4b6975be8eddb7U, 0xbe3c094fbca5730cU, 0x3f429d513e40df86U, 0xbc0557e33e8b9fd0U,
  0x3ee6ec183e4554cbU, 0x3e1d32a7bc8daf6fU, 0x3e655daf3e3e84b5U, 0x3e54b6333d544208U,
  0x3bb869053d13a733U, 0x3bb8fe6dbe761e5bU, 0xbeb8800bbf1e80deU, 0x3eb481cbbebabf21U,
  0x3e9f8839bcd8faf4U, 0xbdbaa2dabe1a457cU, 0x3ead18d1beb55ff2U, 0xbeb68c003ef15b04U,
  0x3e8bdd12be8c4c45U, 0xbb918e5e3d406e78U, 0x3f878591bdd695d7U, 0x3e83d1c3bd413c7fU,
  0x3e0b4efc3e50e694U, 0x3c3369b6bea65817U, 0xbd97ae443f03ab87U, 0xbd8285bcbe028b59U,
  0xbe033b4bbd3e6583U, 0xbe82c11e3e2d51a5U, 0x3ec847c8bf891375U, 0xbe72b3aebe6df324U,
  0xbe6592f1bf2ababdU, 0xbeb2ea83bbec3451U, 0xbe2f12cc3e92dda7U, 0xbf0261393d59ff2cU,
  0xbe731c19bf316e15U, 0xbeaf65903ee6a7e1U, 0xbe828cb63e0fc65aU, 0x3ec23f5d3f88380fU,
  0x3e91f8ca3e7bc771U, 0xbf05f234bca7d529U, 0x3de4d714bdee64e1U, 0xbf1965263e7a9788U,
  0x3f116365be43c2c6U, 0x3e57d51e3dcbe6a4U, 0xbf64097b3f06b4acU, 0xbeb14e0cbee175b9U,
  0x3c3288003d901137U, 0xbec2da65be5b9079U, 0x3cef36ef3e28d272U, 0x3cfabd3a3ddbc7c9U,
  0x3ebb6f0cbec2d190U, 0xbe5b1d07be32e8c5U, 0xbd22c9463e57b343U, 0xbeaa1ba0bcba4b74U,
  0xbe2a18063cebd426U, 0xbd3d121cbe9b0ddaU, 0xbdd36bd93e146842U, 0x3e18cbf0be8594b8U,
  0xbd74b1d4be8f9490U, 0xbac8f3613e602241U, 0xbd8790b53e2799aaU, 0x3e7d9bdb3db88275U,
  0xbe4db224be56cc86U, 0x3ebc2c5dbeb0694aU, 0x3e2cc6e0bf21c308U, 0xbea6f3fb3f1cfb33U,
  0x3efc684c3e38e815U, 0xbe81bd6bbf39518fU, 0x3e8fb4673ec38781U, 0x3e5069923f1f82c1U,
  0xbf1eca7a3e9f2a03U, 0xbe2102cf3b4f699bU, 0x3e981d27bd1b2a0fU, 0x3e05420abec2dd66U,
  0x3e6c3c80bee6ffa5U, 0x3b034f8e3d7ac20cU, 0xbec98791bed13e19U, 0x3d8e1ca23cc2e8cfU,
  0xbe604e39bf302f3cU, 0xbf8752f43df4f295U, 0xbe4a5ab4be2489e0U, 0x3dd9cc223ead4719U,
  0x3e81b7d4bf1cf04eU, 0xbe7ae3403e788cbdU, 0x3e83c37f3de9b628U, 0x3eb5ad5b3f37a5bfU,
  0xbf3314163e8df770U, 0x3ca2cceabf17ff10U, 0x3e93cc80be04e56bU, 0x3e097930be75abedU,
  0xbc1028363e8f2b9eU, 0xbede97dabe21ee1aU, 0xbed6655d3cfc55c1U, 0xbe27aa183d7d687cU,
  0x3dc13d48be3af7f3U, 0x3d97c015be534c38U, 0x3ee3af32bd61f4a7U, 0xbdd720743dccc225U,
  0x3d9de53fbd00af32U, 0xbd0de6163d3bb167U, 0x3f85db053df6abfeU, 0x3dbd6dea3e751170U,
  0x3d33f81bbe11e340U, 0xbd06758bbda53ac6U, 0x3ead9128bd778080U, 0x3f081b3d3e037328U,
  0x3da0f9e03e8122cfU, 0x3dce73e93dab5659U, 0x3e2fca16bf086135U, 0x3d312ce93dcfe146U,
  0x3f0907153d9c3acfU, 0xbf004cd7be3d54adU, 0x3f569929bdc5360cU, 0xbdc76a70be0fbd43U,
  0xbaa3bb1ebf1134e8U, 0x3e803066bf2c38deU, 0x3f0ac7733f097856U, 0xbdcf3004bf381422U,
  0xbd902032bbe8d569U, 0x3ec10d583d359a5cU, 0x3e1ec9883efa0314U, 0xbe37f38ebf8ea673U,
  0x3f0b0f65bf90a91fU, 0xbd4ba3293d68246aU, 0xbc6fc324bd423c2eU, 0x3c66bd453e9663f8U,
  0xbd85c2c5be8f8620U, 0xbeb461e2beaf3c67U, 0x3e05df823d8a9267U, 0xbcb1801a3b8be5faU,
  0x3edf87f5be346707U, 0xbe99956abe22a652U, 0x3e94a1e83eb7983bU, 0xbe9565a23cbf78b8U,
  0xbe0bf149bd5a6735U, 0xbe4736ddbea2a5b6U, 0x3eab7e063e9017d4U, 0xbda31fa1bec90a06U,
  0x3db09f27bddcce85U, 0xbdfe358e3d130558U, 0x3df353ad3d391646U, 0x3ca3f962bad2df88U,
  0x3e97c901bda03d08U, 0x3e19cdd0bdc29151U, 0xbe1a57fe3ea73f13U, 0x3ea162ca3e5af5afU,
  0xbdef374cbee5009dU, 0x3dca321c3e9aaf3cU, 0x3e9b52a3be8a9817U, 0xbd14bf1bbd2c9c56U,
  0xbbb7bdaabb2496e0U, 0xbd7b0b0fbe060c51U, 0xbda8a9523e97342cU, 0x3e5e3f70bbdbef48U,
  0x3ed988503e775736U, 0x3e38ac43beea5bc8U, 0x3e9650cfbec88c10U, 0xbd726d72bd629a51U,
  0xbd4078193e861d3eU, 0xbe3ac1383ec9e3f1U, 0xbc17a1f43d5c8601U, 0x3c95d56cbea0097cU,
  0xbd2503b13f037abfU, 0x3d9a1c963d4481f3U, 0xbf0d91dfbdd81792U, 0x3e87025cbe289a38U,
  0x3e7047f2bdf86b3eU, 0x3eda11243d005f94U, 0x3e16792cbe39874aU, 0x3e5a8f113e25e612U,
  0xbe9ad7403ee5062bU, 0x3e99cbfdbd2db876U, 0x3e93876b3e814423U, 0x3e28563f3ec44c7eU,
  0xbf516c0f3eb66c43U, 0xbee438e03a6d828cU, 0xbef043adbe69d1e1U, 0xbf5116f5bb6fe30bU,
  0x3ebf12e2be1a24aeU, 0xbef105cfbe0ac603U, 0x3ead18033d9d72f5U, 0xbd70828f3f6ed47aU,
  0x3b6857a0be648b82U, 0xbe5c8c4d3c8b3b64U, 0xbe33c3ea3f47e1ddU, 0xbef62c4f3ee705a9U,
  0x3f1b92333f0a8275U, 0xbeb59480be2c7911U, 0xbeadab953e3c8cb5U, 0xbe53b3ee3efadb65U,
  0xbe8dc84fbedbc186U, 0xbecaf8cfbe9ae68cU, 0x3d1d76753e538422U, 0x3e2922ff3ca77ac0U,
  0x3e00816ebe1c9d3bU, 0xbeaf6c75bdba5c7cU, 0x3ea145b93e0033f8U, 0xbea8d0f73e9c0066U,
  0xbebd3a073e083e65U, 0xbe8a1ce7be8f23a7U, 0x3edc1d7b3d8e04aeU, 0xbe0a32cbbeaf6d36U,
  0xbddf3749be478596U, 0xbe0f52ef3eac1c30U, 0xbd47d1cb3cb3c663U, 0x3df795a9be3831bbU,
  0xbd6aea7abe4227f6U, 0xbcd310ec3ded7440U, 0x3ece82243ec47431U, 0xbe92ae303db40d2eU,
  0x3d8717e3be993038U, 0x3dbcad4d3d831093U, 0x3ee8707abe78fc80U, 0x3e759dcdbf3da511U,
  0xbeac5040beba4654U, 0xbd796b7d3e31a8bbU, 0x3e52a74a3e54cbdaU, 0x3a84142a3d99ee9cU,
  0x3e50a27a3d59097bU, 0x3c800a603f17e96cU, 0xbe990a643e8f6387U, 0xbf072dde3e3cb334U,
  0x3daa14073d901473U, 0x3dc642cf3f4b131dU, 0x3c7b1557bcf7f7d8U, 0xbddead11bda80d6eU,
  0x3e658674bf154879U, 0x3ebcdd7c3e235b81U, 0x3f29d1e9bda56e52U, 0x3e4ea839be1a1551U,
  0xbd5392bcbee3e488U, 0xbe5344debdd3ae6eU, 0x3e8148293e16a9faU, 0xbe2579c23d8eb7e3U,
  0xbe9d72353e08829fU, 0xbea9b6b63e821744U, 0xbe887367be217f9dU, 0x3e0dd5a13e1dc293U,
  0x3e42dfcf3e41e5caU, 0x3d4bec203ed5bf63U, 0xbd848d843f2e4ceeU, 0x3dcf43ac3ea97f83U,
  0x3e4eb252bed8aad3U, 0x3e5359db3dffe14aU, 0x3fa1fa663e0786caU, 0x3d97863cbe8726d5U,
  0x3e2099acbe9c20faU, 0xbee83016bd1982e3U, 0x3ee3adb33e115466U, 0x3e185fa33e62831dU,
  0x3efb56f4be963743U, 0xbd832204bf09faa4U, 0xbe6a7312becab511U, 0xbe026b263e5e427fU,
  0xbea69e203de6ec65U, 0xbe8034473f219299U, 0x3f6352723cbeff02U, 0xbddd9cf9bf299831U,
  0xbf653048bf4bcf70U, 0x3f5c9840be64a653U, 0x3f2fdfc6bedddbcaU, 0xbe4355403e120cd9U,
  0xbece72d6bf41525cU, 0x3f626a5d3f2900f8U, 0x3ee7db383f1178f8U, 0xbfaa9595bd5d7d15U,
  0xbf36ee903dd7d040U, 0x3f087218bead6498U, 0xbed867433ebc3f26U, 0xbed5fab13f1ab2feU,
  0xbc81d64abd72154cU, 0xbe239c2abebada35U, 0xbee435e73eb311c1U, 0x3ea1721bbd3f610bU,
  0x3d638401bec7f31fU, 0x3ec832b13ee9ad3eU, 0x3fb08e303e6c75c3U, 0xbea2f4543f411498U,
  0x3e8199a2be9dfc66U, 0xbe6c00bcbd8e1292U, 0x3f0edb7c3e000b1bU, 0x3e0b0ae2bf6b8b19U,
  0x3e3bfa2d3cf6aa95U, 0xbdc943f53e143962U, 0xbe81fb85be988af7U, 0xbea8887ebdcb64adU,
  0x3e5fb1363db5a0b0U, 0x3e7c64ad3ec61a21U, 0x3f36d7cb3ee45b11U, 0x3f2e45d23e90dc07U,
  0xbef2a6b33d689225U, 0xbec5d0cebdaf45e4U, 0x3e4c7ea3be6a482fU, 0x3ec41c023f0eff28U,
  0xbec9e2febec04112U, 0xbee15a67bea4fa64U, 0x3e1bd57c3ddfade4U, 0x3ed93222be93321dU,
  0xbde4769cbef9b78fU, 0xbebfc6073bc22240U, 0xbc9ddad23e615a8dU, 0xbc96f21abf0b6720U,
  0xbec3e0e13ef5598aU, 0xbeb1e46cbef445f5U, 0xbeba25bd3e76305fU, 0xbef5f6013e91ab6cU,
  0x3ed2a04abd837dccU, 0x3d593d51bec4ef12U, 0x3f034269bdf13e6aU, 0xbd9f58da3ec3b267U,
  0xbe831c43bec2b0d1U, 0x3cbce7183ddfa9a7U, 0x3e80acd03f458e96U, 0xbf031cd1bd98ac13U,
  0xbd33cb59be84740aU, 0xbdb0d268be2989ccU, 0x3d948ea43e87d3e4U, 0xbcb80152bcc1493fU,
  0x3ebd2aabbe06a9efU, 0x3d4ff815bd8d0056U, 0x3d51a543bd78b525U, 0x3c826b44bda6c2b8U,
  0xbf06c8dabe2e79a0U, 0x3e06378b3e0f4186U, 0x3e88cef3be52952cU, 0xbdb7cb003cdd1e7bU,
  0x3e6c0aa13ba96f15U, 0x3d8e75223f091ef7U, 0xbd4d56e3be21e4bcU, 0xbe002a1c3e32cfb9U,
  0xba3482b03d61e358U, 0x3e459c77bd2de0d8U, 0xbed9a3b0be9eac14U, 0x3e925d00be790140U,
  0x3e4fad1cbd782854U, 0x3ef72508be10e2beU, 0x3f308eb6beba7173U, 0x3e71f55a3f1d3e72U,
  0xbc82af5a3f0a308fU, 0xbe3f9de7bf715787U, 0x3eb45603be529153U, 0xbd846162be9c40a4U,
  0x3e7b4867bed743a6U, 0xbe6ff8423e5df577U, 0xbe35596ebce7acc5U, 0x3f262e17be884702U,
  0x3d882133be15dab1U, 0xbdd28c983dfa5fd5U, 0x3d112970beb16c51U, 0xbd64ba41bdc0ae0bU,
  0x3eb32af2bf1e516dU, 0xbe0ca502be673201U, 0x3cc8f4d2becab659U, 0x3e39b9aabdacc3b6U,
  0x3d5a3409bedf476cU, 0x3e5c981d3dda761cU, 0x3f4dea5dbe0f2823U, 0x3f2a15753f123627U,
  0x3f196b24be4fa8beU, 0x3e08d4693e905d51U, 0xbe97cddd3f3f4eefU, 0x3e842aa73d30ae74U,
  0xbe14440bbd92b99aU, 0x3bea1ae73e003968U, 0x3e4c0ab7bc46cc81U, 0xbe7281cdbeec0311U,
  0x3df8be90be6e8c53U, 0x3d0547003ee900a7U, 0xbd8d0d12beddb156U, 0xbdd67befbf001c29U,
  0x3e818a66bf623474U, 0x3de600e63f112982U, 0x3f3a313c3c81568aU, 0xbeab740dbcc17e26U,
  0x3f4c8113bd12af96U, 0x3eacfa703f1fd2cdU, 0xbe5e85b73f20e5a6U, 0xbef6e12ebecb43c1U,
  0xbef836c2bdbfc0d0U, 0x3d04d777bd6fa2a3U, 0xbe2a8a093dadeecdU, 0x3cd91220bef67d99U,
  0xbe83b561bf1984b2U, 0xbe8bd436be7c1616U, 0x3e5cb58b3e96b781U, 0x3c06dc3c3f8fc0b7U,
  0x3e6871acbe981a8aU, 0x3d11b7a7bf143a03U, 0x3e9ff94d3d568152U, 0xbc2fa9e43f0fee1aU,
  0xbdb0a049beaf79f2U, 0xbe250009bde409f6U, 0xbed0388bbcbfb2e5U, 0x3f0b6fa2beae6d5fU,
  0xbe0dfabfbe2effd9U, 0x3dcfe293bdfcc17fU, 0x3e072263beacc77dU, 0xbe6df1623dabd31bU,
  0xbd97ecf33d218a4bU, 0xbe35a16abc7d9a09U, 0x3c3c4c52bf076b06U, 0xbec80cfebea07e29U,
  0xbe58b5243d2ad81aU, 0xbb950ec73e53dd57U, 0x3fb373e93e020e36U, 0xbd44b7cc3f167ce2U,
  0x3e9e7165bd696810U, 0x3c811bbc3ec780f2U, 0xbf6b6a213e602e3aU, 0xbcce60c73cf925c0U,
  0xbd1f396dbedf9dd4U, 0xbe53e160bf4d30a5U, 0xbf13f61b3ed2169eU, 0xbedc635fbf2e0881U,
  0x3e855f5cbe12419dU, 0xbab55a823ec525f7U, 0x3e0b85ddbe80a7e3U, 0xbf001f1d3ec466ceU,
  0x3e060c32be83efc1U, 0xbcc004acbdfb1326U, 0x3e9478e3becf73e7U, 0x3d616b75beaae819U,
  0xbe321a78be4530e8U, 0xbdf7865d3e3205acU, 0x3ed3326b3efc897aU, 0xbe861baebe572ec6U,
  0x3c2db6d83de7b8ddU, 0x3c4550b83ef0bdd1U, 0xbe4448ff3cb79149U, 0xbeac438bbcbe2668U,
  0xbeae659dbdcfb0baU, 0xbe791f14be85b08eU, 0x3f3fe363be8489e6U, 0x3f2dc77bbcac4b72U,
  0x3d714ffe3c979c8cU, 0x3f01ace6bd923667U, 0x3f7f2f003daa0059U, 0x3e9a097f3eb7cf3cU,
  0xbea99fb93ca6f41bU, 0x3edfd730be31f4ceU, 0x3dbca943bcbe4ee1U, 0xbe5818d3bda0e023U,
  0xbec670f53ebf4a4eU, 0x3e539f9bbd931e7dU, 0x3e587e383e0d6cfdU, 0xbea8ae4a3ea064d4U,
  0x3e3d4c68bc7e26b3U, 0xbefae2d63e350834U, 0xbd94048a3ea1d21aU, 0x3d96fea13ef66f72U,
  0xbde735e0be40681cU, 0x3e13df78bf3be9a3U, 0x3d8e01ff3e370544U, 0x3e5daafc3e2ac28bU,
  0xbf28ebecbe9896d3U, 0xbe766859be3634a6U, 0xbe80a6a53ef2e831U, 0x3eeeb3b33dad989cU,
  0x3e5e53c23eed61c6U, 0xbea4f5043dff865dU, 0x3e94e925bf1323fdU, 0x3d0e2a533e013073U,
  0x3e330ec63e857632U, 0x3eb0eac83d2f8ed1U, 0x3e7fef5d3ef92da3U, 0xbe35f6363ec4a5adU,
  0xbc6ac00cbea9a7ceU, 0xbd9f34963e5534c0U, 0x3ef6f7fdbcc2f1abU, 0x3f408619bdec539bU,
  0xbe96e0df3de283b7U, 0xbdd6738d3c484104U, 0xbe0322493ec19365U, 0x3e757294bc0cf449U,
  0xbeac00a8bda92ec2U, 0xbc69638d3e7b96feU, 0x3dec2871be0ccf19U, 0xbd4b833e3e4b3b28U,
  0xbe6e8ca2bde47682U, 0x3e367d183ca13babU, 0x3c496cc93d7ab92cU, 0x3ee8a03bbda8ed58U,
  0x3ed799b5be5179ebU, 0x3ee26abf3e198bd4U, 0x3f70a1fc3e1f398fU, 0xbf5224f3be087615U,
  0xbe71fdb73ebe4168U, 0x3eb81a66bd339fa2U, 0x3ee990d5be14b9dcU, 0xbf2547f7bf1ad99fU,
  0x3d8e08183e7e6723U, 0x3eea8d7b3c5e0a52U, 0x3d6d34893f1acda8U, 0x3f40d30d3f0c4c29U,
  0x3e1012a63da9d480U, 0xbf323e2bbd100caeU, 0x3e833f29bdf10fadU, 0x3e20a1633e8e9a62U,
  0xbde4e224bedcc9a6U, 0x3d4017d73f204497U, 0xbea42adc3ef12fb1U, 0x3e9b3e623e96520bU,
  0xbbc0f2473d38d09bU, 0xbea8856dbf1870e6U, 0xbdef06e8bd989ca5U, 0x3e300fb83f101639U,
  0x3eea43333f033f58U, 0x3de37f9a3df1bcf5U, 0xbf35506fbec8ce4fU, 0xbd89c4293c9302bbU,
  0xbee8aade3d5630ceU, 0xbe0f88adbf2bbef3U, 0xbebf784cbd831671U, 0xbe708cca3dfbe2fbU,
  0x3ec26b37be722cffU, 0xbe8c1e24bec12fafU, 0x3ef6f92a3f5e4971U, 0xbf2571df3e836a01U,
  0xbe0ef4c6bdb82cbfU, 0xbdb7258d3d4d21e0U, 0xbe9fafb7bca68023U, 0xbf074a173dcc7227U,
  0x3e4221bcbeb1d54fU, 0xbd8d0b04bdbfee4cU, 0xbe5afadd3b0f2842U, 0xbdf1381d3e3345d5U,
  0xbe954c43beded5b7U, 0x3ba5dd433e9a1aefU, 0x3e39ea9abdf5e5a1U, 0xbf2e8a2ebdd33fa6U,
  0xbef16584beda14bcU, 0xbcbb0d38bd6f254bU, 0x3f4646d43bdf2836U, 0x3e86e952bedc1f11U,
  0xbf1625b43f3e17f9U, 0xbd7957b83d666949U, 0x3cf5eca33f01ba7cU, 0x3de143ce3f2ab95dU,
  0xbf3921cb3ed47831U, 0x3f027d7a3d96acf2U, 0xbe8b38a93c2f897cU, 0x3d2801873d8b3f55U,
  0x3ddbe61dbddee056U, 0xbe2a852a3d511bd2U, 0x3f2b0f2bbe5f302cU, 0x3e3d4e263e2d6c1aU,
  0x3dec43f33e87e402U, 0x3dd806de3e93380dU, 0x3f6dcba03f114abdU, 0x3efb27b43efa46c2U,
  0xbe579296bd1f101dU, 0xbddf0ebb3c971b30U, 0xbf801296be36b052U, 0xbdc905e8be1f705cU,
  0xbdce6868becdd504U, 0x3e14c1063e24a88cU, 0xbebf4fc03d911c45U, 0xbdb5b9e63d9c806cU,
  0xbe38527f3d231c29U, 0xbf383bccbed6dc53U, 0xbe8a9dc7bd78ed5bU, 0xbe3f66d83ee663e4U,
  0x3f1f58d6be1b11e7U, 0xbc1fe740bed6cfeaU, 0x3e1eefe3bd2fab16U, 0x3d6c41913f06235fU,
  0xbf21910b3e48921cU, 0xbe1d0072bf01d231U, 0xbea051ea3e347cf1U, 0x3eb604013ea79a43U,
  0x3e9069733f1357e1U, 0x3d899da8beceafb5U, 0xbe7752d2be4042f9U, 0xbdccc67cbd1bd20dU,
  0xbdd407ccbe42b8f5U, 0x3e071a163e28f12bU, 0xbdf123f8bde7934dU, 0xbcb7b36c3b68eee6U,
  0xbc7f8bf9bc8539daU, 0x3e12e158bdd87281U, 0x3f33207a3d84ea97U, 0xbc48f6743f1eebacU,
  0xbdce6eb63ecdbebeU, 0x3e215c0a3e8ffa76U, 0x3eb124163e4e6ad8U, 0xbe867d8dbe863281U,
  0xbe79974ebd900e4fU, 0xbeb4d0c63dd2fc2cU, 0x3e96d16b3e146828U, 0x3b72c4e33d958f40U,
  0xbe937618bde15a75U, 0xbf87c5ba3b9279e8U, 0xbe8d474b3e476b80U, 0x3e1e74bdbe2031c5U,
  0xbd9fc27abf22c7c7U, 0xbf10749d3e3c389cU, 0x3e86e6a73f1de694U, 0xbe4763e23e9030abU,
  0xbe5d21a9bcf733c6U, 0xbecf54e2bf774ed4U, 0x3da02efebe22e3c8U, 0xbeded1a4be221989U,
  0x3d9443f43e96caf9U, 0xbeb3371abda155fbU, 0xbec99b7fbc5a95d0U, 0xbdcfa912bdc2374bU,
  0x3ef21f0cbe03bf49U, 0xbe4829253db15889U, 0x3f432a643e43da21U, 0x3f31820cbbc30e48U,
  0xbef0a903beba2c2bU, 0x3e51c9473d7ea5faU, 0x3e66d4f13ea93da4U, 0xbdc5cfc7befbd405U,
  0x3e4fc2f23e5141baU, 0xbd3a430ebd05fbe1U, 0xbf28e02b3e79d9c0U, 0xbcf60b8fbf0f2035U,
  0x3dc6b3d8bdf20b2dU, 0xbe1b0cf83d59fe2cU, 0x3e0947ddbf8d88e4U, 0x3e859a103e859adeU,
  0x3e049a553e834f64U, 0xbe957eb1be04a64aU, 0x3e0bef5e3d9ffa6dU, 0x3e590d693e110ffaU,
  0x3d8fe04dbecfaaf1U, 0xbec83780beb972a2U, 0x3d3a1cb23ea291dcU, 0xbedf3de93dd120b8U,
  0xbe6934c53af113b3U, 0xba078eeabe96cc23U, 0xbd807fe43e333e48U, 0x3d8edb08be96e129U,
  0xbe5d7fa5be7083eaU, 0x3c6743133ec1fcabU, 0x3d569ac33da5b68cU, 0x3e482681bd3aec3cU,
  0x3ef59879bde9bec2U, 0x3c716b883c722760U, 0xbe868d3bbbbc49d4U, 0xbe0ca647be3b428eU,
  0x3db117e5bf114e91U, 0xbe388b723f1a8ce0U, 0x3f74cdbe3e2852ecU, 0x3e43d4713cb01b10U,
  0x3f1bc3203e045f8aU, 0xbeabc3e5bd98bd67U, 0xbe1756243f2edf2fU, 0x3e22604abe439e76U,
  0x3c58fd10bea50d50U, 0xbd9c7aecbe80ae87U, 0xbd30f735bf1ea704U, 0xbe81b2193e4700a1U,
  0xbda87d06bf0fdeb9U, 0xbd98506abee7d3a1U, 0x3f879f623f3ea18eU, 0xbf15333e3f1d8a91U,
  0x3d4b0b923cca8f9dU, 0x3e4e5e78bc4f4e03U, 0x3f7ee016beb105a6U, 0x3edb3f41bec36cc1U,
  0xbe369b803bce20d4U, 0xbd8d4526be09fa2eU, 0xbed1dad73f4c738cU, 0xbeaaa6803e9483acU,
  0x3f269f953dcb5f38U, 0x3df235f3bde99fbcU, 0x3e7addd5bf0a7f79U, 0xbed3aa2b3e383252U,
  0xbdc2be823c8d731bU, 0xbf147df53e12d465U, 0x3d9201bfbe8cc4dfU, 0xbe83ab73bdb18eeaU,
  0x3e47f68cbecade79U, 0x3dabc450bd054678U, 0x3f7258bcbf0e61f4U, 0xbf058745bd9cfc53U,
  0x3f0a29c53eb0b906U, 0xbdf78b803e0448f6U, 0xbed743c03e14e7b8U, 0xbee1fb843d92bc5eU,
  0x3eb4a2723e0f0c80U, 0x3ea8c4463d79fa85U, 0xbddad0823eaaef24U, 0x3ebc48c7bf070209U,
  0xbd9a870abe98514eU, 0xbdcc1568bf06b833U, 0x3eb97eb83f013e00U, 0x3f44f356bd29724fU,
  0x3d81bbd1be24e3bdU, 0x3f18be3b3da021ddU, 0x3f9d8be7be0e6568U, 0x3ddd7dcc3eb08eefU,
  0xbe5d3d403e8d34bfU, 0xbd6cb980be24d08aU, 0x3e44484bbd863fc8U, 0x3e9b61043dbc9760U,
  0x3eb8f5613e8337abU, 0x3ea6cd6c3f3ab300U, 0xbe242170be965267U, 0xbf1f841b3f0638e4U,
  0xbd9fbffe3f58c9f5U, 0x3e5bd4e73ea1b6bbU, 0x3e95b3bb3e78ef80U, 0x3e2e1db73efd3cb3U,
  0x3b8977e0bea0c6c5U, 0xbe86c0c5bda424c0U, 0x3f700a5e3ceecb82U, 0x3f4a314ebea0ef44U,
  0xbf00d85dbd49d3a7U, 0xbe3818463c897568U, 0x3d1166813f4558c2U, 0x3c9003453e9eaaa4U,
  0xbde689f2be31fe9cU, 0x3da80601be0302fdU, 0xbdb65a51bf3cd96aU, 0x3e14def2bce00bc8U,
  0xbdb6cb813d62e910U, 0x3f0235543c389de3U, 0x3eadb29ebe2e7c36U, 0x3f03d81bbea27233U,
  0xbdf54908be8fe7c2U, 0x3f3ee3f43f1b0b0aU, 0x3eab5e213e7ffa39U, 0x3e814c79be4fbcbaU,
  0xbd054054be2b3191U, 0x3f586d8d3ec42059U, 0xbe322ad03dc6a529U, 0xbf818f61be3f76a1U,
  0xbf2b91dfbe5bda7cU, 0x3f44eab83e73128aU, 0xba2055febf214118U, 0xbf2231343e576fb9U,
  0x3e21cf333e9697ccU, 0x3ebf06353dd2f27aU, 0x3ee9fd5b3f12728bU, 0x3e6dd31e3e40c0a3U,
  0xbeac1960be615328U, 0xbeda47fd3d8d4c59U, 0xbdd0ae2fbe731976U, 0x3dbf7c713f0a85ffU,
  0x3f1a8f32beeae4f5U, 0xbf210e0c3dbfc766U, 0x3e283725bdd45442U, 0x3d7355123d532d95U,
  0x3e33e7e5bf1637f1U, 0x3efa25163edafdb6U, 0xbf5724723e89bc6fU, 0x3d9b818fbecca5bcU,
  0xbbf25e10be695c43U, 0xbea08dc5be4701beU, 0x3de811a73d6cd963U, 0xbe9c44eb3dd96fd8U,
  0x3e84191dbe6009f1U, 0xbda2a24dbec691a7U, 0xbcbddd8d3da69666U, 0xbe501d48bc018f23U,
  0xbe7e1b4f3dd05adfU, 0xbe2bb459bebc86cbU, 0xbd2ecf5f3db376cfU, 0x3d600dcbbea6b507U,
  0xbd591e37be4c2c01U, 0xbcafb24f3c360aabU, 0x3dfab4bb3d9e80c7U, 0x3e4f599c3de98d63U,
  0x3d865e01bdf04a2dU, 0x3c55cdc6be085a91U, 0x3e0982df3eb2b297U, 0x3e3368a13d94ca06U,
  0x3e88ee50ba7c66c5U, 0xbe569a5bbf1948bcU, 0x3e8b0e1d3f01933cU, 0xbe5cde2abdbf3b2fU,
  0x3dcadb49bdecbb8fU, 0xbe81c83e3e051e86U, 0xbdf016373cbd56a5U, 0x3d8e6c9e3daf5e3fU,
  0xbd2c3ea3bee78b12U, 0x3dd0bc5a3e19e3eeU, 0x3dd7c6c0bdf4092dU, 0x3e1716783e64cb26U,
  0xbd8b16553d2451b4U, 0x3d227982bd7511ecU, 0x3e8d6483bd15b4edU, 0xbdf2c5163c95b5d4U,
  0xbd818a7b3de420eeU, 0x3d08a02e3d21015dU, 0x3f6db4153da57529U, 0xbdfc17a33e8a5617U,
  0xbe1533aabe8dbb43U, 0xbe131fe4be35131fU, 0xbc413d473c84c24eU, 0x3e3799693d03f600U,
  0x3c6c8f4ebcbbbe77U, 0xbc7b22c53d9782e8U, 0xbd95cfcdbef6cfd6U, 0xbd571a843ddb6dfbU,
  0x3f2672d5be1ee8a1U, 0xbe2f2fc0bd4fac92U, 0xbe255e52bc56d037U, 0xbdb9a2e43e34e944U,
  0xbe741d44be9d634aU, 0xbdc4bf093d9b3d1dU, 0x3f0670d23dc47868U, 0xbd17d99e3e9ae36eU,
  0x3df97a043eaadf38U, 0x3e001e1f3e82bff8U, 0x3e815b123ed3f369U, 0x3e1d4feabe1b3db0U,
  0x3ca75a3cbb087bd3U, 0xbe770c7bbe6da451U, 0x3e791b0cbf2e1c54U, 0x3e32bb03bd8bcfd8U,
  0xbf0650d5be486199U, 0xbeaea6e1beb7c692U, 0xbe57abf73e23b336U, 0xbe78c930bd820065U,
  0x3f09317bbed67ec7U, 0xbef1c8513c66b731U, 0x3ec120773f558d12U, 0xbf0093313f14b1bcU,
  0xbdb81e903de6e98bU, 0xbe21cd03bdc1ae38U, 0xbd8bd96e3da3933eU, 0xbed4d1283c919324U,
  0x3e224b81beacd151U, 0xbe5bfaa6bd9c2947U, 0xbe9e59593d23d578U, 0x3d7dc76bbcf6c0f9U,
  0x3ef733b2bddeff0dU, 0xbe21c79ebdb95890U, 0x3da4c5adbd4e24e9U, 0x3ed4a4e33e02cb58U,
  0xbef4d60d3da4a3e0U, 0xbd66c8e7be55ee63U, 0x3e5782abbf1bfc37U, 0x3e274c063e8bb362U,
  0xbd365e7b3cebf604U, 0x3ca245e03e92627cU, 0xbec755343ede0a0fU, 0x3e4edbe13dc12a6eU,
  0x3e62f9d5bdd7a5b1U, 0xbd9e9fcb3e486736U, 0xbee79dfabdd1867fU, 0xbe24f1b5bdc5c2e1U,
  0xbe1fc1f6be0a57a0U, 0xbf0cf4463efac847U, 0x3f4a664b3cae1cd1U, 0xbec3b6803dd01460U,
  0xbe2213053e462fb8U, 0x3ebcd8c6bec5749dU, 0x3fa5d54fbec2b63fU, 0x3e1f2d023e2d5922U,
  0xbe6419703e35aa86U, 0x3eb11ff03de4188cU, 0x3e90e5033dba5b20U, 0xbee9e600bcdfaf3cU,
  0xbd7167883dc57858U, 0x3d06da9abf4703b8U, 0x3e0fd2c43dbe3d3eU, 0x3eae23b93dbeb1c7U,
  0xbe2fb682bf187fe9U, 0x3e81e980bdcae78dU, 0xbe4fdcd2be4c98baU, 0x3e4190b83e12457eU,
  0x3e918dc23f0197a5U, 0xbd368296be944f87U, 0xbf9962a63e45f0e1U, 0x3e4a9edb3d111f7dU,
  0x3c61264bbe85ea17U, 0xbe44327dbeb90c94U, 0xbd858bf83c9dfc9eU, 0x3f0fb4393f2349e0U,
  0x3ead2e07bee3f53aU, 0x3eae85d4bdefd44bU, 0xbeed3fe23d37fe61U, 0x3de056f4bbd547dfU,
  0x3ea879f33e0115a3U, 0x3ed14eca3ee6f633U, 0x3d95e677bd903a1cU, 0xbe2c5f16beb04359U,
  0x3c9a2327bf10f8b5U, 0x3e9e8d003e8f04edU, 0x3f0f7bd7bd86c8f7U, 0x3e39e6f2be772886U,
  0xbcdb27cdbe9aa2d9U, 0x3ea27bee3e100059U, 0x3df6104abdadc7f7U, 0xbed73d2dbea091b1U,
  0xbe6dd3f33d4599afU, 0xbdbcd7323dc1ff7cU, 0x3e36fc41bebdc898U, 0x3d25cf853cf337bdU,
  0x3e57104bbdb9283aU, 0xbe9bfdfebc260336U, 0x3e99c6ca3e2738baU, 0x3d644dfa3e0ae8d3U,
  0x3dbb2baebd498d01U, 0x3e33902ebdb54db2U, 0x3f642550bf16f343U, 0xbda56b14be81cf73U,
  0xbed3f4ac3d8571c8U, 0x3dfceb85bf076df5U, 0xbd8078cf3f073421U, 0xbdebe8933eb73c1cU,
  0x3e8a814c3e817bb0U, 0xbe00d793be1aca8eU, 0x3d19fcaabf05328cU, 0xbeb858c13e202b0fU,
  0xbe0107e23e91c40fU, 0xbea4b9bf3ee8fbbdU, 0x3d99aa6fbd0cf410U, 0xbc1110ab3d53cb01U,
  0x3e3e9c72be2a28f1U, 0xbe95070e3d42fcf7U, 0x3dd9a8ce3ea14848U, 0xbd914ed3be02b6cdU,
  0xbe1762a43ec63598U, 0xbf1ee841bece3ee9U, 0x3d9bb1a0bd95ec42U, 0xbd49f376be82ba23U,
  0xbd85832fbe87cbdbU, 0xbe9a29d93cc33c20U, 0xbd177dd5bd93c93bU, 0x3de372fb3e836423U,
  0x3f0d5c17bd638121U, 0x3e8eb67dbe97385fU, 0x3ee2127fbd2dac91U, 0x3da58dd0bc509addU,
  0x3f32b743be877b49U, 0x3e7d320c3f29f0f0U, 0x3f0a2d14beb8e264U, 0x3f0e0f69be558cbfU,
  0x3dc86d1abe907810U, 0x3d4b082b3d8de70dU, 0xbc0195903f94fa5bU, 0xbf00e377bddab193U,
  0x3e8722563e45ed68U, 0x3ed1786abe9c49bfU, 0x3eb68c03bf8951a8U, 0xbd4675dfbd2de5deU,
  0x3e181d093e593c22U, 0x3c3153323c673939U, 0xbdc40a183dff32bdU, 0xbebb670c3e92a1f9U,
  0xbe4c4d2cbcbcb7deU, 0xbda834c7be1b0ea9U, 0x3f199d0a3d1c0327U, 0x3e00f174be942aa3U,
  0xbcf9e7093e343c18U, 0xbdf129c03e88cdccU, 0x3f0f22023ebcbb12U, 0xbcc7a3593e81643bU,
  0x3db6b7c03d9027dfU, 0x3e49ed423d995c4aU, 0xbe681ceabee651adU, 0xbd9c9b48be17a685U,
  0xbe1181babcbe36a5U, 0xbf0201eb3f0f4654U, 0xbdf5e550bdae665dU, 0xbe9bc1d93e9768cdU,
  0xbcee56eabf505cacU, 0xbdddfcbc3dca6271U, 0xbdeaf22e3e2b48baU, 0x3e2c8c043f208718U,
  0xbcbe32b03e49da84U, 0xbf0b95b9bed098c0U, 0xbe0cf1403e1384fdU, 0xbdbb41d23e6f623cU,
  0x3ed03dd53d4adf22U, 0xbda45ee43e5e8411U, 0xbf18bffbbc9e6da6U, 0xbd9e8408bed21799U,
  0x3f8bcaa1be2b7965U, 0xbeb734f4bf14fba9U, 0xbf16341b3e95e224U, 0x3e82b54e3eeeeaa8U,
  0x3f4cc841bdf8b810U, 0xbf1601104009c0e8U, 0x3fb4fbc0bf41abd5U, 0xbf5c748c3eb38c36U,
  0x3e15b368bfc49bd4U, 0xbf2d1b7e3f4fdaadU, 0x3d96b1523f014239U, 0xbe6408b23f604c8cU,
  0xbd75a900be6008f0U, 0x3eba2d473deb87e4U, 0xbf499420bf13038fU, 0x3f307ed2bf68e03eU,
  0x3d8b877c3ee53b1cU, 0x3e5f0a083eacee1bU, 0x3e98a07ebf165bb8U, 0xbd1dd8983d467ee8U,
  0xbf87e6d43ecbfef8U, 0x3ed9a7d53ec59315U, 0xbfd1605c3ecde53bU, 0x3e09c2fcbe7ac77eU,
  0xbde0f78ebe0e833eU, 0x3f5e9b70bed37001U, 0x3f45b947bf31d1b3U, 0xbf6008d03ed59256U,
  0x3f96136c3eb198e0U, 0x3f0c64e13eda2c32U, 0x3f9a19cfbef2ab48U, 0xbf08740b3f715a9cU,
  0x3eaa89863dd8978aU, 0x3f0d44b33e9401feU, 0x3d934c9bbe153693U, 0x3e9e60a83f951169U,
  0x3f6726cb3febeb26U, 0xbdcbc6b0bf4fe0e2U, 0xbf199ebf3ecf53baU, 0x3fbe7950bfa1550eU,
  0xbf16ef7f3f22de18U, 0xbe0c22b7be88d512U, 0xbeed594dbfd3f724U, 0x3ec4a1523d333208U,
  0xbe874674bf288574U, 0xbf54f94fbf0caef8U, 0x3ed2f6ed3e6219b8U, 0xbeddbdee3de7e596U,
  0xbf410bce3e0fcf70U, 0x3e75ca98bed98716U, 0xbe4a19663fd78738U, 0x3f99a0443cf08100U,
  0x3f8f9618be1ce995U, 0x3ed95d0cbfb6b640U, 0xbeba96b4be992288U, 0xbeeffd8d3ec9e5fcU,
  0xc00659933edba1f0U, 0x3e904622be251ef6U, 0xbf0d23bc3f0e0746U, 0x3fd8c2d0be29da05U,
  0xbeb0d7553ea68a6dU, 0xbfc6cfc63f4e540fU, 0x3ef903573e4fc9f4U, 0x3d382cd1bfc85c83U,
  0x3ebeeea53fa3c998U, 0xbe62ef91bcf853d1U, 0xbe73db70bebe6158U, 0x3f2009ab3b1a7188U,
  0xbcfa7549bd896395U, 0x3ccefd163d1e70bfU, 0x3e3a69b33dccf3b0U, 0xbef1e2b5be456701U,
  0xbe9114ebbe2ee69aU, 0xbe2f30da3e9645a4U, 0xbe73f0f2bdf6082aU, 0x3eb29acd3e9ef17dU,
  0xbe912bb8be5bd512U, 0xbe1e228dbe0acb41U, 0xbdc4ba8cbebf04d0U, 0xbd28ccf8bdc96594U,
  0xbe2ac1383bf813e3U, 0xbeced3433ec16c0dU, 0xbe1768643ec6ebcdU, 0x3ea2998bbd4bb2adU,
  0xbd69ad233ef540e7U, 0xbebbdd2ebe363f3bU, 0x3d0d6040be10709eU, 0xbcdc379d3d74bca6U,
  0x3d1b4ead3e4b2db8U, 0xbea12b44bef95437U, 0xbe85eb24bdd31a85U, 0x3d9795613e4a9c15U,
  0x3ee05db8bea763f5U, 0xbe5124aabe2c0890U, 0x3ef5206ebcbfb1ddU, 0xbe8e36eabec10dbcU,
  0x3f07f803beafaca6U, 0xbe3c8341be34a3c0U, 0xbdb2fc00be57a687U, 0xbe6bb8193eac04deU,
  0x3e386f9f3e258c85U, 0x3e9ed58ebe4116f6U, 0xbe80eb32bd3c47f1U, 0xbc61c2b73dff5c13U,
  0x3e9199a3bde09560U, 0xbe2749863dffab41U, 0xbef32b923c520ff0U, 0xbe80eba0bd779611U,
  0x3e37e84cbe1e1e39U, 0x3cf86bb4beb1e283U, 0xbe79df113f0195d5U, 0xbdcec08fbe6a20deU,
  0xbeae8cf53ed44330U, 0x3ed06a8fbdeb070aU, 0xbe8cb24abe231eceU, 0x3e7656d3bebf320dU,
  0x3ebf6c33bc8185c0U, 0xbe0724813e6875a0U, 0xbe8ca52abe40a8ebU, 0xbe8dd8a2be147accU,
  0x3e2048a5bd85f65aU, 0xbcbdabfa3dfc7954U, 0xbe10bf36bd88b466U, 0x3daa6489bdee9e8cU,
  0xbeb6951abc065fe0U, 0xbd4b55d7be6598c7U, 0xbd2dcbe4bcab5532U, 0xbdedf39abe92ed35U,
  0x3ec9ddc13e9b0ca0U, 0x3e2f54d1be88d926U, 0xbe29ceef3e563aecU, 0x3ebd829dbea972faU,
  0x3ccb1c00be30496eU, 0x3d96b1573ee26456U, 0x3e97ddc4bd7dd34eU, 0x3da4fc0d3e6d29d1U,
  0xbe0ed29abf10abf2U, 0xbe6f80813ec3a766U, 0xbde156bcbe6df89bU, 0x3e80ef7e3eab5350U,
  0xbda2c319bebf8ba4U, 0x3dd0681fbcbabebbU, 0xbe786424be5b94aaU, 0x3e087ad1bb4e2258U,
  0x3d9d795d3e740094U, 0x3e1be5d73f036d54U, 0x3ebd8d87bdc140bcU, 0x3ed271d23d98f90dU,
  0xbeb3a0b43eb9278eU, 0x3dee7f973dcd00f2U, 0xbe7e9a85be43fbb3U, 0xbd6a79e6be5feee7U,
  0x3f15adcb3e8ae87dU, 0x3f053f5ebe63f70aU, 0xbe3ff8febdfbd197U, 0xbeeb94e43e4fbdadU,
  0x3e2ed72f3e717778U, 0xbe38e5d13e164ffbU, 0x3ec2bbdcbd730bcaU, 0xbd2a48cabe03f8dbU,
  0x3eaa0888bd1fd465U, 0x3d941b2f3dbfb2d0U, 0xbe8d1874bdfdea60U, 0x3eac019b3ee0ead4U,
  0x3d66f1ff3f067ac7U, 0x3ecb9ad5be9088f9U, 0xbddfadad3d4037a1U, 0x3e04089d3e6279c4U,
  0x3e5b15d6bd6b94f3U, 0xbe8a89a9be89a001U, 0xbea2c126bdc4780eU, 0x3eaf12193d16950cU,
  0x3e36c352bf01b16dU, 0xbec50aa1bede79b1U, 0xbe451c7a3e80b4bcU, 0xbbc3ba6fbd37f646U,
  0x3d149e373ef0afb7U, 0x3f1e27263dd9e731U, 0xbe0beac33eb7195aU, 0x3ee038babdd2141cU,
  0xbdd0cfec3d7fadd2U, 0xbbf98a28bdb1f6e7U, 0xbe3a9050bd995b21U, 0xbdd6bea7becbedf2U,
  0xbf2725e8be987324U, 0x3e15d0273eea4b49U, 0xbd8d3c353e25a7c4U, 0x3e30f6cd3c71ff3dU,
  0xbd73d4bebd62e87aU, 0xbeb94a69bd22d3fbU, 0x3da964f1bda12a5aU, 0xbd41a3e1bed3d7a3U,
  0x3e68a0093eed3444U, 0xbe042445bd26c7eaU, 0xbe726605be432217U, 0x3f2198c7be34a553U,
  0x3e6718a7be663610U, 0x3c042ea63dba9e19U, 0x3dd292c4be9c727aU, 0xbbced83ebedf42a3U,
  0xbeb344d3befdf539U, 0xbeb7703d3e5d0f23U, 0xbe43aa31be83feb5U, 0x3e89f1d13e3d64dbU,
  0xbd77ccaabe79ab8aU, 0x3e5ffd2b3d8c8525U, 0xbb4e752abdce8b64U, 0x3e351a85bdce45efU,
  0xbe86e7d63e1cf7b4U, 0xbe5400f83e48a516U, 0xbeb3c5493e0aa264U, 0x3ef37ec23d20c8b3U,
  0xbdf036693e98fc35U, 0x3c69f9b13e7711dcU, 0xbdb8e86ebe860ed1U, 0x3e8076b83e344296U,
  0x3db041b33aaacf3bU, 0x3d8d60d83dbb4959U, 0xbecf0ce8bd841f25U, 0xbeb7828dbd0688a1U,
  0x3e98b07cbe0d26f2U, 0xbecdeef2bd9a8365U, 0x3e5323693e899c8cU, 0xbea47523be826f3aU,
  0x3f2403cbbe8041f1U, 0xbe8ab5a0be04087dU, 0xbeab70ebbedb7e7fU, 0xbe0dbb553ef31733U,
  0x3da4beda3dedc812U, 0x3f0fc547be82a33eU, 0xbdce41acbba5d06cU, 0xbb82730a3e8ea179U,
  0xbc47071abca25eaeU, 0xbe198d00be578907U, 0xbe9c0a633e78e8efU, 0xbf1810b83e00ace4U,
  0x3ea1207abec57b76U, 0x3d61d79cbe47266dU, 0xbe52d8353e228702U, 0xbe65ea6fbd85a834U,
  0xbd965d0b3e514b9fU, 0x3e615b713de4073fU, 0xbf0098e93d922d9dU, 0x3e38b56fbe1102aaU,
  0x3ec645e5bd66c848U, 0xbdce9419bd2e70e5U, 0xbe9412c7bd960105U, 0xbe9fdddebe480540U,
  0x3e0440d4be6a1d27U, 0xbbbba9863e3f52e6U, 0xbc05806a3e6e48efU, 0x3dd371a7be9292beU,
  0xbe274ec0bed2f95cU, 0x3db2a874bd7557a4U, 0x3d7dfb1dbe897eb7U, 0xbeb0401f3e2841f0U,
  0x3eef1e843dce06d9U, 0xbee603e43ee9755aU, 0xbf02e50c3e82a3d9U, 0x3da7d574be69970bU,
  0xbf0a760cbec25ddcU, 0xbea159a63e23467eU, 0x3d73f69dbcc111c8U, 0xbea7a5e83dd204cbU,
  0xbed2f0183d9f1399U, 0xbebccf24bdaf9296U, 0x3ef9c557be630095U, 0xbe042b29be81a709U,
  0xbe8afcdcbde9c7a5U, 0xbed4daef3f156c6aU, 0x3e71cf4bbe982d96U, 0xbe6f39063d2f03d3U,
  0xbeaa53e1be8e69ccU, 0xbc9e568e3df4b04bU, 0x3e5c3ecd3b5e7f46U, 0x3ed39617bd5d613aU,
  0x3e1462eabe113a8aU, 0x3e3e322b3e8ac3bdU, 0xbc7546f7be8a029eU, 0x3d5e69c63dd8d1e5U,
  0x3e361e0a3d6196e7U, 0x3dc069b63e5b4a4dU, 0xbea69f643eb693a1U, 0xbcb7d3433d402e49U,
  0x3c55ac29bcf9dc62U, 0x3daaad67be882a12U, 0xbc366f853d09bedbU, 0x3e56102d3d934b2aU,
  0xbd20e8613e4f8089U, 0x3e1aac44beab770bU, 0xbda11db73e86f2d3U, 0xbe4e6576bdec2b0bU,
  0x3d9b4171bdd0c890U, 0xbd6f009ebe3396bfU, 0xbe2ef2a73e894061U, 0xbd6715c73ee63100U,
  0x3ec80d4ebeb3ef2eU, 0xbe02ea5b3d640040U, 0x3b94d73d3ca5b96cU, 0xbdeeb1a63d8e1301U,
  0xbe3b28bc3dd1c049U, 0xbf04ee6fbe3a76d0U, 0xbe8a3f333ea48b38U, 0x3d808c69bd52aa77U,
  0xbeaf5082bea3372aU, 0xbe23bac8bedf8d8bU, 0xbb70bdd6be82408cU, 0x3dd6c63b3ebeff81U,
  0xbe531353bec86cdbU, 0xbd508f343dc2fb6dU, 0xbd0c487d3e844455U, 0xbf01a6d8bdeef13eU,
  0xbed3316abea23583U, 0xbe4cf1ddbed0f7bbU, 0xbdf50228bd265fa8U, 0x3ebce9f3ba72210eU,
  0xbece0494bdcfae00U, 0xbf0443653e828e97U, 0xbe167a95be9c1fb4U, 0xbec9abfbbdf9e614U,
  0x3cbc42ce3d1ab69cU, 0x3e0b8664be576cd3U, 0xbe3356cebe6d670fU, 0x3e08e86a3e8470f3U,
  0xbe723cefbe708492U, 0x3db8845b3dc73c5eU, 0x3e154c813de983a2U, 0xbef41bf3bde74ffdU,
  0x3e34d73a3cb14d24U, 0xbf1ba44a3dcdfd3dU, 0xbdf5bda13d78f89dU, 0xbe4d1a56bd9bbed8U,
  0x3c1001223d7ecad3U, 0xbc492bee3eab7448U, 0xbd86a6f13de7af44U, 0x3dbe9a743e335e75U,
  0xbedb76d8bebaa5f0U, 0x3da5f8af3e2cd94fU, 0xbc1aaef1bd899499U, 0x3e0ddd863e1f96afU,
  0x3e3989e83e807496U, 0x3e71227d3dca144bU, 0x3d532835beb9cde5U, 0x3a1095fa3ee88461U,
  0x3c42c131bf0ea492U, 0x3ed8aeb83ecdf004U, 0xbf5ed9db3e83d74eU, 0xbd15836f3f0cf886U,
  0xbcdefa3dbdd093d6U, 0x3eb6e9f03e12d14cU, 0x3e749eaf3d495064U, 0x3e6d31bf3c4a76dcU,
  0xbef1bc0a3e26a16bU, 0xbd857d72bd8b7a06U, 0xbf14dea8bb2a8d8eU, 0xbdcc62073d0cd3e5U,
  0x3d3fa77fbe0bf94aU, 0x3d3d9e833ee071d9U, 0xbe27638e3d2ae2deU, 0x3d27dfa53e2c5f9dU,
  0x3e0616c1be60ffa6U, 0x3b80b127bf3011dbU, 0xbedb9a333dd55f40U, 0xbf06c5a03b94c4f0U,
  0x3eb5af33be2b684fU, 0xbea2d45e3d0fa8b8U, 0xbe5d76ff3eaa374aU, 0x3ddb9398be4d7056U,
  0x3d5028023af07243U, 0xbe21bd17bdb0b29bU, 0xbef177743edb5f1fU, 0xbdab143bbe2f7f2eU,
  0xbcc07b0abed51788U, 0x3e0026f4be54dc9eU, 0x3dfcdf6b3dde102cU, 0x3e16fc003e6cc43eU,
  0xbe02402cbec9c222U, 0xbd3ab0c1be63f9baU, 0x3f1458aebf1c7abbU, 0x3eb11ff93e04ec2bU,
  0x3d64c3adbdf572f7U, 0x3d202a07bdd07b95U, 0x3cd85979be4e11aaU, 0xbd8ae918be1bafeaU,
  0xbede30633ed33536U, 0x3db6edfdbe4a2dabU, 0xbdc199e4bdda43e3U, 0x3c45e450bdf618f6U,
  0xbd98d610be96ad30U, 0xbe1fe4843e2f13ffU, 0xbe8450563e53e5aaU, 0x3e44d5203d640870U,
  0xbec4e50bbf13f789U, 0x3d263e803e997e07U, 0xbbe36531bd3052c6U, 0x3d074e1cbd8f2be0U,
  0xbe329ff5be6d7263U, 0xbe348be53ebd476bU, 0x3e60a5adbe5b7088U, 0xbd2970263c4c4794U,
  0x3d0d04df3dda7b8dU, 0xbdda7a63bd96893cU, 0xbe60f965be4c3df1U, 0x3ef07785be8ecc53U,
  0x3d7728e63ea1e12eU, 0x3e02991f3ebb6aeeU, 0xbe26b629be2c3da7U, 0xbc9852143d6b014eU,
  0x3ec209943e03fc6fU, 0x3eacef153d42c771U, 0xbbe312babe9b05b4U, 0xbc005da6bd9c10deU,
  0xbe8552dc3e413d62U, 0x3a971874bd4ea708U, 0x3e6162083d9cc71bU, 0x3e372a0bbccb1e51U,
  0x3e00d382be346990U, 0xbe8b05493d3ababeU, 0xbf387f5f3ebcfe7fU, 0xbea12574bd6b0d4fU,
  0x3ee00f0cbd3f4c35U, 0xbee20eee3dfecefaU, 0x3d0fb6c73e1afb83U, 0x3deba0523ed1c87dU,
  0x3e2cbee0be9cc3b9U, 0xbde25901be2945edU, 0xbebae1df3d126348U, 0x3cce35cbbf09cad2U,
  0xbe362723be8d7645U, 0x3d16679dbee135a3U, 0x3abc98adbb8a75deU, 0xbce016d9be25b8c0U,
  0x3d6fcaafbeb41bb4U, 0xbde54c59be868406U, 0xbe156390bd91b4caU, 0xbe2a022a3d3b6465U,
  0xbd2733b9be25b203U, 0xbe8b9551be1970e2U, 0x3e4a4e4d3eaff150U, 0xbe9bd7773ebfe6c8U,
  0xbe8cb9b43d544f8bU, 0xbed7512cbe73c6a4U, 0x3d3ed9243db14d13U, 0xbca387bf3db7e5eaU,
  0xbd1eacd9bd2578feU, 0xbe8e898a3d9c49efU, 0x3cb55c71bd7b7c1cU, 0x3d69f95b3d3bfb94U,
  0x3d284052bd246861U, 0xbc22c6cdbde694feU, 0x3f09e1f93ecddf22U, 0x3f04277dbe8c7262U,
  0xbca9fe683df0dd80U, 0xbe63e6fa3e2ceb32U, 0x3f1d634ab9a8e303U, 0x3e9991efbef8d8fbU,
  0xbe1d29e83ebed404U, 0x3f1a9a1bbdeebb8eU, 0x3e7c1229bef543b2U, 0xbd89364bbd6cf2f1U,
  0xbe9626d43ee857c9U, 0xbe120392bed266aaU, 0x3e8e50d73e08ad7bU, 0xbe1fc365bd7fd6c1U,
  0x3d66e0b53d307acbU, 0x3ba3ddcbbe80dd3cU, 0x3df31d6dbd9d37f2U, 0xbe4e61073f0a3b2dU,
  0xbd202b9f3e919b73U, 0x3f162089bd39f132U, 0x3e3f6d4bbbebc1e3U, 0xbde03b803f279cdaU,
  0x3e93d3df3cdd8cf0U, 0xbe193244be9d8be1U, 0x3da7d30cbe8510e3U, 0x3ea7dd84bd692263U,
  0x3d92a7d93df0f87cU, 0xbe80ffc3bde0f66aU, 0xbe04d7d0bea6f634U, 0x3f35df0b3d0ade52U,
  0xbe6cff813d26f1bbU, 0x3f3d6b8dbe175156U, 0xbe736b5cbed6187fU, 0x3f473686be83f715U,
  0x3e9949943e099c7cU, 0xbe0fc5e43d12a8ddU, 0x3ee7d6603e898817U, 0x3f3d601d3ebc3c6bU,
  0x3f00090fbeb37748U, 0xbcd638b03eb7d452U, 0x3d828a183d9a70caU, 0x3d5dc95a3eac9352U,
  0xbe802a0ebd27afd4U, 0xbea70f3b3e6debbeU, 0x3e561198be3d99ffU, 0x3e6216f23d8d74adU,
  0x3c4c85913c39da3eU, 0xbec0686c3f15b5d7U, 0xbe8697a5be3f8180U, 0xbc244acc3ea03156U,
  0x3f704199be0b925bU, 0xbe38c9ce3ed50f6dU, 0x3eb4ebe2be7b2fdeU, 0x3edfe5173a6c45ecU,
  0x3ef08b773e0e1c54U, 0xbe6d2e71becabccfU, 0xbe91d665be99c86aU, 0x3e831597be6b89fdU,
  0x3d8724123e1e1632U, 0xbe528afc3dc15b65U, 0x3eeb821fbde47027U, 0xbed130b2be9da903U,
  0x3e71f3c8beb7b503U, 0xbd227e54becc1e7dU, 0xbe04552b3e451ce3U, 0x3ee2775d3e27a708U,
  0x3ec6ea35bed8e795U, 0x3da684aebe060a1eU, 0x3ea9c120bd7dd6c0U, 0xbdc661c83caa6f81U,
  0xbd02ba2a3ee05e2eU, 0x3e9344c7bf049a62U, 0xbe6d02113e1b3e79U, 0xbe8e853dbe88480bU,
  0xbe9886403ed9a98fU, 0xbe81c6bfbee3d932U, 0x3dba70fb3ecd54e8U, 0xbeb71894beb9de76U,
  0x3d20d92d3ca7253cU, 0xbf224858bd5797fdU, 0x3e80a8a1be50a80eU, 0x3ba5da733ebd5b50U,
  0xbe786a473f06f00bU, 0x3e37db19bd0c2165U, 0x3e9e62a53d19621fU, 0xbec7fb393f1e1138U,
  0x3e40755fbdc8038eU, 0xbf1d0667bea3a505U, 0x3e2656b8be3d47ddU, 0x3eb82c2d3e821109U,
  0xbd3ff5f6bf02aa01U, 0xbe8235c8be5b457dU, 0xbe544eee3cf5291bU, 0x3e6c47a63da4305bU,
  0xbe3f3c5d3bb3c2feU, 0x3edd2c23bdad9ac3U, 0xbe8d9b05be66e95cU, 0x3ecbf710beaeccafU,
  0x3e0a3b7a3eb0667dU, 0xbec0e643be9b6c4eU, 0x3dff177c3f0cca09U, 0x3ef5600b3f1dc4beU,
  0x3dc917d8bdd3378dU, 0xbdcb4ee03dd49800U, 0x3e8118f73e85271eU, 0xbeeb0b523d2566e7U,
  0xbec5afcbbeb15af2U, 0xbec62164bf781cd9U, 0x3e3e8f4a3ee0f1aeU, 0x3e7099d83d814dd6U,
  0xbf4a9a52be8c794fU, 0xbe0b42343e9c3c89U, 0xbe3e29b1beb06bb9U, 0xbe3234603f116dc7U,
  0x3f7dd15bbe7de039U, 0xbd9f3de33ec2a9a4U, 0x3ef7cccbbded7f9aU, 0x3dff6da8bd15d4a5U,
  0xbc2735463e725045U, 0xbe98264fbe9d99b8U, 0xbe754ee7bd01cddfU, 0xbf2e7deabe874e95U,
  0xbd45ddfb3eefed15U, 0xbc5c78103e57347fU, 0x3ed8de41bd9060b5U, 0xbe51e4303d75cab0U,
  0xbf0fd8c8bef831fdU, 0x3ca2e8d2bd76e271U, 0xbd016fe3bf4a7c53U, 0x3ee65bf33f24dc40U,
  0xbd5bbc6ebd026a05U, 0xbdc487483e12aa0bU, 0x3ed4d6563d0f3e04U, 0x3e5ec299bdcadeb0U,
  0xbdf708ea3edb29dfU, 0x3e807f7e3e01b870U, 0x3d2339a1be22acc6U, 0xbe7ab3fcbe1a6cc3U,
  0xbe83851c3ecf6ef1U, 0xbe37e81ebe6f36eaU, 0x3e06799e3e787772U, 0xbe9972823d29ab01U,
  0x3e72cce43e9bf9b1U, 0xbda236f9be487d54U, 0x3e8d31bfbdac806aU, 0x3cfb17883e9ff138U,
  0xbdae4ea23bf3945aU, 0x3ea8a0d63d5bbdd9U, 0x3ea742133e34023eU, 0xbc3ad1643e5891daU,
  0x3e1cecaf3ec044c5U, 0x3dfe9c4fbe06ee7dU, 0x3d6ac6e9bd505ce1U, 0xbe9c357cbd9bb2f7U,
  0x3e35f99a3de36c30U, 0xbe953e2ebda67367U, 0x3e4a459fbecb0f23U, 0x3ec45422be60ff44U,
  0xbeab84cc3e759ff5U, 0x3f038cbe3e1f7eddU, 0xbd9f1ab8be6f5c61U, 0x3f0775c4beabd5d2U,
  0x3dbaa4e1bd8f7f72U, 0xbe7c2aa9bdd83532U, 0x3eb2de2a3ed5ee6cU, 0x3f193de13eb74505U,
  0x3efffc59bdd81fd1U, 0xbe3eb3283e941b96U, 0x3e59ddc73e0c6f2cU, 0xbd9c05893e549aacU,
  0xbdc89ce8be1ad360U, 0xbec04dc53db8250aU, 0xbaef21dfbccf1f63U, 0x3d9e7d3f3ea5e323U,
  0x3c84499a3d44754bU, 0xbeb843f53eb659cdU, 0xbeb476b53ddf7b16U, 0xbdeadc0f3d9aab8cU,
  0x3f0546cc3e4c4ff6U, 0x3da8b57b3e956e37U, 0x3e8bd39fbe44a5f3U, 0x3eaba76abddc493bU,
  0x3ef056163e9e7729U, 0xbec19bb2be699aceU, 0xbdd445323d8c5f2dU, 0x3e4ef56ebed3d881U,
  0x3e94d1e93ea94c9fU, 0xbe631e4b3dd0bc79U, 0x3efd6bb1be622272U, 0xbe99972cbbf98e6bU,
  0x3dbaf0bbbe3d9a26U, 0x3e949da2be4e41c0U, 0x3cea3c2b3ea2738cU, 0x3dd67ac63ece4979U,
  0xbf31f7903e93863dU, 0xbe814e943e86aa91U, 0x3e99d6333e180c91U, 0xbe00112dbec67c5dU,
  0xbe88c5753ee5c8b9U, 0x3ebe41a53e6b8a60U, 0xbd8738d63d23b896U, 0xbe29d8343eaf1859U,
  0xbe80cc6d3eb5a959U, 0x3ecb508b3d93a43bU, 0xbe95fe753c6655f3U, 0x3ea897e6be56399eU,
  0xbe6058ea3e6e62cfU, 0x3e81e608be0ee903U, 0xbc3ecc45bcc4f966U, 0xbdbbd8933db224fdU,
  0x3f0384833e3411e5U, 0x3ee8f674bd8401f5U, 0xbda6d9c3beb52734U, 0x3daf015b3f1bae52U,
  0x3ef2410a3dd5490bU, 0x3e228070be214c0bU, 0xbec58e253e4766fdU, 0xbe2bd1b4be5fe89cU,
  0xbdcbc3473e8a006cU, 0x3e88d0be3ed05f1bU, 0xbd1d276c3d85346fU, 0xbee52372be6d9ba4U,
  0xbe8908c1be198e70U, 0x3cd45e6a3ea5f863U, 0xbd9b41a8be2a9e8cU, 0xbeaaf9f43eed2e57U,
  0xbe9ff0ecbea61eccU, 0x3e85b91e3e88ddb0U, 0x3e163ba33d5e4368U, 0x3eeb1148be1c7fdfU,
  0x3e03d82b3f0bc330U, 0x3e5e81f53f407463U, 0x3e6b1f9f3eb848d7U, 0x3e7fd985bcf7a674U,
  0x3eb739123eab4ca3U, 0xbe29edefbe8b69c7U, 0x3dac32d0bea45ebbU, 0xbe0b0552be7044d0U,
  0x3da2869e3e190661U, 0x3e8f5f6f3ea7dc67U, 0x3e8f087fbd6d76abU, 0xbe184e34be17ba39U,
  0x3e81eef5be55eed4U, 0xbe1a32bf3d56c00cU, 0x3ea5daba3f299b20U, 0xbe30ef273d39c22aU,
  0xbe93fd803e0f5fa1U, 0x3d56ae633ed3e29dU, 0xbe9857573f1438b3U, 0xbe045646be9a7620U,
  0xbe991422be546940U, 0x3e5b5f3e3e5c4369U, 0x3e24bae93dbf0b77U, 0xbb834bbd3e047582U,
  0xbe9d15a33e9141acU, 0xbf0e0b77be95da20U, 0xbe9bbda53e701f46U, 0x3e6691433cf2249bU,
  0x3ea5074cbd985214U, 0xbe42c7f03e7fb5e9U, 0xbd9f59963e96a611U, 0xbdcc233bbe9d00efU,
  0xbcc1a78e3d5348a9U, 0x3e80c139bdc101e7U, 0x3d960bb6be3ffce5U, 0x3e0e5de6bd81a879U,
  0xbce4eeff3c5caa9dU, 0x3e4aca01bd381370U, 0xbe5eb0f5be315fa8U, 0x3e8f213fbe795494U,
  0x3dcca3123c53e8faU, 0xbce25850be4aa4a8U, 0xbe2a8bde3dc3dd44U, 0xbeeeef8abe0a0be0U,
  0x3eab988fbc34c2c8U, 0x3ed61017be631834U, 0xbe3ecb20bec6efeaU, 0x3cc8c9213ea506a2U,
  0x3e0f710b3e91dad1U, 0xbb0ffbcdbe72f9ceU, 0xbeb6edb93d141522U, 0xbd8ddd23be32a8dcU,
  0x3cf98ae8bdf0fa4fU, 0x3da29ec63dea7c2eU, 0xbec1f2e8bd1780ccU, 0xbebc5baabe9cc39fU,
  0xbe009c23bd2d649aU, 0xbdc8169dbde40681U, 0xbdbc9571be8db2f0U, 0xbea561a03e24ecf0U,
  0xbe92254dbe947e94U, 0x3e7a79233e6fe885U, 0xbd69cfa93d0224f1U, 0x3ed96927be8a8d2fU,
  0x3e3643843eab1d8fU, 0xbe61b1e53e981c13U, 0x3e8783a03e4044c7U, 0x3eb9c4c43d9ef293U,
  0xbcd5faaa3ec66c9cU, 0xbd38231ebd8337a2U, 0xbe64e3d2be25cdc2U, 0x3e3f2f89be59bf63U,
  0xbe08a13f3df6d2e8U, 0xbe72068d3e049c64U, 0x3e5d4089bd8ba13eU, 0xbd231e5fbdd1d93cU,
  0x3eadd106beb5ad71U, 0xbecc45e6beb7161cU, 0x3e3bd3603f19a030U, 0xbdcd8284be2be458U,
  0x3de7129c3e93829dU, 0x3ded31243e32bbf1U, 0xbea5c89f3c8c1196U, 0xbe90225bbe461cf6U,
  0xbeab3df8bdf5cc40U, 0x3da33287be803d6aU, 0x3dd5eb5e3d9b0c16U, 0xbe454e6dbdeea1e5U,
  0x3d6787ee3e0c1c29U, 0xbf33ad2cbe149697U, 0xbdd61375beca3d50U, 0xbd2d3803be4a5c1bU,
  0x3eb211343c274e96U, 0x3da702223ec26917U, 0x3dbfc8023e87a040U, 0xbdf4883ebe319a35U,
  0xbc08af383ea948d0U, 0x3ed305dabe0204fbU, 0x3e91fa6dbe9ac836U, 0x3dd0e60a3d0f779aU,
  0xbe342e92be7bf1bdU, 0x3ef431d6be835978U, 0xbe78314ebdbaaa81U, 0x3e9e9588be820e49U,
  0xbd9380c73de6a787U, 0x3eb91b9ebe883e62U, 0xbe47755c3e4ba23bU, 0xbed62913be520762U,
  0x3e7df2e03eb6f1deU, 0x3eaedccc3d7b3197U, 0xbe29d587bc9f7a44U, 0x3e30a7cd3f317febU,
  0x3eb0f1943e9442b5U, 0x3eaa0d70be4f9784U, 0xbec1b01e3e38740dU, 0x3dab823c3e6331b1U,
  0x3e604aae3d8b568bU, 0x3ad4607abd261bbaU, 0xbe2e58f53db83fa0U, 0xbe385c43be96fa8aU,
  0x3e0de9c03e5ea97aU, 0x3eb3d2353b925f50U, 0x3de04fafbf115346U, 0xbe72ad3c3e0aee0fU,
  0xbecd1622be29d64dU, 0x3e9153bb3eae38b9U, 0xbd25d2e93eb3a0e9U, 0x3efd2b09bec94d45U,
  0x3e424d123f088a36U, 0xbe1a89503ee8fb5aU, 0x3e3947153e956159U, 0x3eb335ebbdb2c29aU,
  0x3e2804c33ee86108U, 0xbd6f3bf43d5daef2U, 0xbdf4e052bead45adU, 0x3e9592c0bede7feaU,
  0x3e5f17e73f23eccdU, 0xbd4cf7583e1a0094U, 0x3ef4af1ebe932a63U, 0xbacf0c3ebe81fbf0U,
  0x3e69fbc4be8c0607U, 0xbe109a27be18fc2fU, 0x3eb1d4d13ee03e13U, 0x3d605ffdbdaaff8dU,
  0xbdc0981a3f0eb540U, 0x3e898ad63e81fd20U, 0xbebd2d8f3e626ac5U, 0xbe2a64b2be898ef4U,
  0xbef687c7be870652U, 0x3e4422383d3c63b0U, 0x3e538f763eff23e2U, 0xbe0832d4bdf53961U,
  0x3e113f223ec773c0U, 0xbf26d10bbe40a7e2U, 0xbe93b9803e546e6dU, 0x3ef11bf93e03503bU,
  0x3f095513be8dea62U,
};


ai_handle g_ppg_network_weights_table[1 + 2] = {
  AI_HANDLE_PTR(AI_MAGIC_MARKER),
  AI_HANDLE_PTR(s_ppg_network_weights_array_u64),
  AI_HANDLE_PTR(AI_MAGIC_MARKER),
};

